{
  "version": "1.0",
  "truncation": null,
  "padding": null,
  "added_tokens": [
    {
      "id": 0,
      "content": "<|bos|>",
      "single_word": false,
      "lstrip": false,
      "rstrip": false,
      "normalized": false,
      "special": true
    },
    {
      "id": 1,
      "content": "<|eot|>",
      "single_word": false,
      "lstrip": false,
      "rstrip": false,
      "normalized": false,
      "special": true
    },
    {
      "id": 2,
      "content": "<|user|>",
      "single_word": false,
      "lstrip": false,
      "rstrip": false,
      "normalized": false,
      "special": true
    },
    {
      "id": 3,
      "content": "<|assistant|>",
      "single_word": false,
      "lstrip": false,
      "rstrip": false,
      "normalized": false,
      "special": true
    },
    {
      "id": 4,
      "content": "<|system|>",
      "single_word": false,
      "lstrip": false,
      "rstrip": false,
      "normalized": false,
      "special": true
    },
    {
      "id": 5,
      "content": "<calc>",
      "single_word": false,
      "lstrip": false,
      "rstrip": false,
      "normalized": false,
      "special": true
    },
    {
      "id": 6,
      "content": "</calc>",
      "single_word": false,
      "lstrip": false,
      "rstrip": false,
      "normalized": false,
      "special": true
    },
    {
      "id": 7,
      "content": "<|reserved_0|>",
      "single_word": false,
      "lstrip": false,
      "rstrip": false,
      "normalized": false,
      "special": true
    },
    {
      "id": 8,
      "content": "<|reserved_1|>",
      "single_word": false,
      "lstrip": false,
      "rstrip": false,
      "normalized": false,
      "special": true
    },
    {
      "id": 9,
      "content": "<|reserved_2|>",
      "single_word": false,
      "lstrip": false,
      "rstrip": false,
      "normalized": false,
      "special": true
    },
    {
      "id": 10,
      "content": "<|reserved_3|>",
      "single_word": false,
      "lstrip": false,
      "rstrip": false,
      "normalized": false,
      "special": true
    }
  ],
  "normalizer": null,
  "pre_tokenizer": {
    "type": "ByteLevel",
    "add_prefix_space": false,
    "trim_offsets": true,
    "use_regex": true
  },
  "post_processor": null,
  "decoder": {
    "type": "ByteLevel",
    "add_prefix_space": true,
    "trim_offsets": true,
    "use_regex": true
  },
  "model": {
    "type": "BPE",
    "dropout": null,
    "unk_token": null,
    "continuing_subword_prefix": null,
    "end_of_word_suffix": null,
    "fuse_unk": false,
    "byte_fallback": false,
    "ignore_merges": false,
    "vocab": {
      "<|bos|>": 0,
      "<|eot|>": 1,
      "<|user|>": 2,
      "<|assistant|>": 3,
      "<|system|>": 4,
      "<calc>": 5,
      "</calc>": 6,
      "<|reserved_0|>": 7,
      "<|reserved_1|>": 8,
      "<|reserved_2|>": 9,
      "<|reserved_3|>": 10,
      "!": 11,
      "\"": 12,
      "#": 13,
      "$": 14,
      "%": 15,
      "&": 16,
      "'": 17,
      "(": 18,
      ")": 19,
      "*": 20,
      "+": 21,
      ",": 22,
      "-": 23,
      ".": 24,
      "/": 25,
      "0": 26,
      "1": 27,
      "2": 28,
      "3": 29,
      "4": 30,
      "5": 31,
      "6": 32,
      "7": 33,
      "8": 34,
      "9": 35,
      ":": 36,
      ";": 37,
      "<": 38,
      "=": 39,
      ">": 40,
      "?": 41,
      "@": 42,
      "A": 43,
      "B": 44,
      "C": 45,
      "D": 46,
      "E": 47,
      "F": 48,
      "G": 49,
      "H": 50,
      "I": 51,
      "J": 52,
      "K": 53,
      "L": 54,
      "M": 55,
      "N": 56,
      "O": 57,
      "P": 58,
      "Q": 59,
      "R": 60,
      "S": 61,
      "T": 62,
      "U": 63,
      "V": 64,
      "W": 65,
      "X": 66,
      "Y": 67,
      "Z": 68,
      "[": 69,
      "\\": 70,
      "]": 71,
      "^": 72,
      "_": 73,
      "`": 74,
      "a": 75,
      "b": 76,
      "c": 77,
      "d": 78,
      "e": 79,
      "f": 80,
      "g": 81,
      "h": 82,
      "i": 83,
      "j": 84,
      "k": 85,
      "l": 86,
      "m": 87,
      "n": 88,
      "o": 89,
      "p": 90,
      "q": 91,
      "r": 92,
      "s": 93,
      "t": 94,
      "u": 95,
      "v": 96,
      "w": 97,
      "x": 98,
      "y": 99,
      "z": 100,
      "{": 101,
      "|": 102,
      "}": 103,
      "~": 104,
      "¡": 105,
      "¢": 106,
      "£": 107,
      "¤": 108,
      "¥": 109,
      "¦": 110,
      "§": 111,
      "¨": 112,
      "©": 113,
      "ª": 114,
      "«": 115,
      "¬": 116,
      "®": 117,
      "¯": 118,
      "°": 119,
      "±": 120,
      "²": 121,
      "³": 122,
      "´": 123,
      "µ": 124,
      "¶": 125,
      "·": 126,
      "¸": 127,
      "¹": 128,
      "º": 129,
      "»": 130,
      "¼": 131,
      "½": 132,
      "¾": 133,
      "¿": 134,
      "À": 135,
      "Á": 136,
      "Â": 137,
      "Ã": 138,
      "Ä": 139,
      "Å": 140,
      "Æ": 141,
      "Ç": 142,
      "È": 143,
      "É": 144,
      "Ê": 145,
      "Ë": 146,
      "Ì": 147,
      "Í": 148,
      "Î": 149,
      "Ï": 150,
      "Ð": 151,
      "Ñ": 152,
      "Ò": 153,
      "Ó": 154,
      "Ô": 155,
      "Õ": 156,
      "Ö": 157,
      "×": 158,
      "Ø": 159,
      "Ù": 160,
      "Ú": 161,
      "Û": 162,
      "Ü": 163,
      "Ý": 164,
      "Þ": 165,
      "ß": 166,
      "à": 167,
      "á": 168,
      "â": 169,
      "ã": 170,
      "ä": 171,
      "å": 172,
      "æ": 173,
      "ç": 174,
      "è": 175,
      "é": 176,
      "ê": 177,
      "ë": 178,
      "ì": 179,
      "í": 180,
      "î": 181,
      "ï": 182,
      "ð": 183,
      "ñ": 184,
      "ò": 185,
      "ó": 186,
      "ô": 187,
      "õ": 188,
      "ö": 189,
      "÷": 190,
      "ø": 191,
      "ù": 192,
      "ú": 193,
      "û": 194,
      "ü": 195,
      "ý": 196,
      "þ": 197,
      "ÿ": 198,
      "Ā": 199,
      "ā": 200,
      "Ă": 201,
      "ă": 202,
      "Ą": 203,
      "ą": 204,
      "Ć": 205,
      "ć": 206,
      "Ĉ": 207,
      "ĉ": 208,
      "Ċ": 209,
      "ċ": 210,
      "Č": 211,
      "č": 212,
      "Ď": 213,
      "ď": 214,
      "Đ": 215,
      "đ": 216,
      "Ē": 217,
      "ē": 218,
      "Ĕ": 219,
      "ĕ": 220,
      "Ė": 221,
      "ė": 222,
      "Ę": 223,
      "ę": 224,
      "Ě": 225,
      "ě": 226,
      "Ĝ": 227,
      "ĝ": 228,
      "Ğ": 229,
      "ğ": 230,
      "Ġ": 231,
      "ġ": 232,
      "Ģ": 233,
      "ģ": 234,
      "Ĥ": 235,
      "ĥ": 236,
      "Ħ": 237,
      "ħ": 238,
      "Ĩ": 239,
      "ĩ": 240,
      "Ī": 241,
      "ī": 242,
      "Ĭ": 243,
      "ĭ": 244,
      "Į": 245,
      "į": 246,
      "İ": 247,
      "ı": 248,
      "Ĳ": 249,
      "ĳ": 250,
      "Ĵ": 251,
      "ĵ": 252,
      "Ķ": 253,
      "ķ": 254,
      "ĸ": 255,
      "Ĺ": 256,
      "ĺ": 257,
      "Ļ": 258,
      "ļ": 259,
      "Ľ": 260,
      "ľ": 261,
      "Ŀ": 262,
      "ŀ": 263,
      "Ł": 264,
      "ł": 265,
      "Ń": 266,
      "Ġt": 267,
      "Ġa": 268,
      "in": 269,
      "he": 270,
      "re": 271,
      "on": 272,
      "Ġthe": 273,
      "er": 274,
      "Ġs": 275,
      "at": 276,
      "Ġo": 277,
      "Ġc": 278,
      "en": 279,
      "es": 280,
      "Ġw": 281,
      "nd": 282,
      "it": 283,
      "is": 284,
      "or": 285,
      "al": 286,
      "ing": 287,
      "Ġp": 288,
      "Ġf": 289,
      "ed": 290,
      "Ġb": 291,
      "an": 292,
      "ou": 293,
      "Ġof": 294,
      "ar": 295,
      "Ġin": 296,
      "Ġm": 297,
      "Ġand": 298,
      "ion": 299,
      "Ġto": 300,
      "Ġd": 301,
      "ic": 302,
      "le": 303,
      "om": 304,
      "as": 305,
      "Ġh": 306,
      "Ġth": 307,
      "ent": 308,
      "Ġe": 309,
      "ct": 310,
      "ro": 311,
      "Ġl": 312,
      "Ġre": 313,
      "il": 314,
      "Ġn": 315,
      "st": 316,
      "ve": 317,
      "et": 318,
      "ly": 319,
      "im": 320,
      "ĠT": 321,
      "Ġg": 322,
      "ation": 323,
      "Ġis": 324,
      "ol": 325,
      "ut": 326,
      "ra": 327,
      "se": 328,
      "id": 329,
      "ce": 330,
      "ow": 331,
      "ot": 332,
      "ig": 333,
      "Ġu": 334,
      "Ġbe": 335,
      "âĢ": 336,
      "ch": 337,
      "ur": 338,
      "ĠS": 339,
      "Ġfor": 340,
      "ver": 341,
      "ĠA": 342,
      "ĠI": 343,
      "Ġst": 344,
      "Ġy": 345,
      "Ġon": 346,
      "ul": 347,
      "Ġthat": 348,
      "ay": 349,
      "am": 350,
      "ir": 351,
      "el": 352,
      "ith": 353,
      "ĠC": 354,
      "Ġcon": 355,
      "her": 356,
      "Ġyou": 357,
      "if": 358,
      "ad": 359,
      "Ġwith": 360,
      "Ġ(": 361,
      "Ġas": 362,
      "Ġit": 363,
      "Ġan": 364,
      "Ġpro": 365,
      "od": 366,
      "ter": 367,
      "Ġal": 368,
      "Ġwh": 369,
      "Ġex": 370,
      "ĠThe": 371,
      "um": 372,
      "Ġ1": 373,
      "ĠM": 374,
      "Ġor": 375,
      "ate": 376,
      "Ġare": 377,
      "ge": 378,
      "qu": 379,
      "ab": 380,
      "ri": 381,
      "ist": 382,
      "ers": 383,
      "ĠP": 384,
      "ect": 385,
      "Ġcom": 386,
      "Ġhe": 387,
      "res": 388,
      "Ġwe": 389,
      "ess": 390,
      "Ġde": 391,
      "pp": 392,
      "Ġv": 393,
      "ity": 394,
      "ment": 395,
      "ĠB": 396,
      "ies": 397,
      "ke": 398,
      "th": 399,
      "ore": 400,
      "us": 401,
      "ĠH": 402,
      "Ġ2": 403,
      "op": 404,
      "ac": 405,
      "ive": 406,
      "ill": 407,
      "Ġsu": 408,
      "Ġha": 409,
      "ld": 410,
      "igh": 411,
      "em": 412,
      "ant": 413,
      "est": 414,
      "os": 415,
      "rom": 416,
      "un": 417,
      "iv": 418,
      "Ġwas": 419,
      "ĠW": 420,
      "ain": 421,
      "Ġat": 422,
      "nt": 423,
      "Ġby": 424,
      "Ġcan": 425,
      "ĠF": 426,
      "oc": 427,
      "Ġr": 428,
      "ĠE": 429,
      "ial": 430,
      "Ġne": 431,
      "ĠD": 432,
      "and": 433,
      "Ġch": 434,
      "Ġse": 435,
      "ure": 436,
      "ĠR": 437,
      "ical": 438,
      "Ġle": 439,
      "ĠL": 440,
      "pl": 441,
      "--": 442,
      "ions": 443,
      "ort": 444,
      "ud": 445,
      "Ġen": 446,
      "ight": 447,
      "art": 448,
      "Ġfrom": 449,
      "Ġsh": 450,
      "rou": 451,
      "Ġthis": 452,
      "og": 453,
      "Ġsp": 454,
      "Ġnot": 455,
      "00": 456,
      "pt": 457,
      "all": 458,
      "âĢĻ": 459,
      "ere": 460,
      "ine": 461,
      "ĠN": 462,
      "ag": 463,
      "Ġint": 464,
      "Ġus": 465,
      "Ġab": 466,
      "ome": 467,
      "ĠG": 468,
      "per": 469,
      "Ġhave": 470,
      "ould": 471,
      "out": 472,
      "gh": 473,
      "iz": 474,
      "Ġpl": 475,
      "ĠâĢ": 476,
      "Ġwor": 477,
      "Ġim": 478,
      "ust": 479,
      "'s": 480,
      "act": 481,
      "ĠĠ": 482,
      "ard": 483,
      "ations": 484,
      "our": 485,
      "end": 486,
      "are": 487,
      "ĠO": 488,
      "ther": 489,
      "Ġwhe": 490,
      "ich": 491,
      "Ġk": 492,
      "Ġcomp": 493,
      "Ġ$": 494,
      "ult": 495,
      "ide": 496,
      "ous": 497,
      "ost": 498,
      "Ġyour": 499,
      "Ġtheir": 500,
      "age": 501,
      "ated": 502,
      "The": 503,
      "ff": 504,
      "ap": 505,
      "ec": 506,
      "Ġthey": 507,
      "ans": 508,
      "ell": 509,
      "ak": 510,
      "Ġcont": 511,
      "Ġad": 512,
      "du": 513,
      "Ġall": 514,
      "Ġres": 515,
      "ib": 516,
      "orm": 517,
      "ip": 518,
      "ast": 519,
      "ĠJ": 520,
      "ĠTh": 521,
      "ong": 522,
      "able": 523,
      "ru": 524,
      "Ġdo": 525,
      "ind": 526,
      "Ġ\"": 527,
      "Ġme": 528,
      "ction": 529,
      "ok": 530,
      "Ġdis": 531,
      "ance": 532,
      "Ġwill": 533,
      "Ġ\\": 534,
      "Ġwhich": 535,
      "ep": 536,
      "cc": 537,
      "ĠIn": 538,
      "Ġinc": 539,
      "Ġcl": 540,
      "ary": 541,
      "ach": 542,
      "ĠU": 543,
      "ry": 544,
      "Ġso": 545,
      "ence": 546,
      "ual": 547,
      "ie": 548,
      "very": 549,
      "ime": 550,
      "Ġj": 551,
      "Ġbut": 552,
      "ear": 553,
      "vel": 554,
      "ack": 555,
      "ign": 556,
      "Ġun": 557,
      "ass": 558,
      "ents": 559,
      "ood": 560,
      "ike": 561,
      "ire": 562,
      "Ġmore": 563,
      "Ġapp": 564,
      "##": 565,
      "Ġsa": 566,
      "Ġother": 567,
      "Ġimp": 568,
      "Ġman": 569,
      "ue": 570,
      "Ġabout": 571,
      "ress": 572,
      "Ġout": 573,
      "ition": 574,
      "Ġone": 575,
      "Ġup": 576,
      "ber": 577,
      "Ġhas": 578,
      "Ġte": 579,
      "Ġar": 580,
      "Âł": 581,
      "Ġper": 582,
      "ose": 583,
      "ake": 584,
      "ater": 585,
      "Ġ20": 586,
      "so": 587,
      "ice": 588,
      "one": 589,
      "Ġ=": 590,
      "ile": 591,
      "ens": 592,
      "ces": 593,
      "ia": 594,
      "ang": 595,
      "Ġqu": 596,
      "ook": 597,
      "ace": 598,
      "ame": 599,
      ").": 600,
      "Ġev": 601,
      "ors": 602,
      "Ġsc": 603,
      "Ġpre": 604,
      "ase": 605,
      "av": 606,
      "low": 607,
      "..": 608,
      "ks": 609,
      "ite": 610,
      "fere": 611,
      "nder": 612,
      "form": 613,
      "Ġ3": 614,
      "int": 615,
      "ory": 616,
      "Ġthem": 617,
      "Ġthere": 618,
      "ph": 619,
      "ath": 620,
      "----": 621,
      "Ġpart": 622,
      "au": 623,
      "Ġwere": 624,
      "ound": 625,
      "Ġtime": 626,
      "now": 627,
      "ating": 628,
      "Ġlike": 629,
      "ne": 630,
      "Ġsome": 631,
      "ild": 632,
      "Ġ-": 633,
      "Ġinto": 634,
      "Ġsy": 635,
      "Ġhis": 636,
      "te": 637,
      "Ġalso": 638,
      "ĠIt": 639,
      "ree": 640,
      "Ġhow": 641,
      "Ġthese": 642,
      "ings": 643,
      "Ġcomm": 644,
      "ord": 645,
      "ric": 646,
      "ays": 647,
      "âĢĿ": 648,
      "Ġdif": 649,
      "Ġbet": 650,
      "ple": 651,
      "Ġro": 652,
      "ub": 653,
      "Ġher": 654,
      "rough": 655,
      "ond": 656,
      "Ġbec": 657,
      "Ġfe": 658,
      "ys": 659,
      "Ġwhen": 660,
      "ily": 661,
      "ount": 662,
      "olog": 663,
      "ari": 664,
      "Ġif": 665,
      "ates": 666,
      "Ġour": 667,
      "ĠK": 668,
      "Ġunder": 669,
      "Ġgo": 670,
      "xt": 671,
      "ally": 672,
      "ĠThis": 673,
      "Ġind": 674,
      "ĠSt": 675,
      "Ġwho": 676,
      "Ġpe": 677,
      "ities": 678,
      "les": 679,
      "we": 680,
      "Ġthan": 681,
      "Ġtra": 682,
      "ms": 683,
      "ough": 684,
      "ific": 685,
      "Ġstud": 686,
      "Ġits": 687,
      "Ġem": 688,
      "ics": 689,
      "ĠY": 690,
      "ish": 691,
      "ĠHe": 692,
      "lect": 693,
      "Ġcol": 694,
      "ll": 695,
      "eth": 696,
      "reat": 697,
      "Ġag": 698,
      "Ġover": 699,
      "Ġknow": 700,
      "ons": 701,
      "Ġra": 702,
      "ove": 703,
      "Ġtr": 704,
      "ov": 705,
      "Ġtw": 706,
      "Ġuse": 707,
      "),": 708,
      "Ġwhat": 709,
      "Ġhad": 710,
      "Ġwork": 711,
      "ĠâĢľ": 712,
      "Ġcons": 713,
      "vers": 714,
      "Ġwould": 715,
      "Ġrec": 716,
      "ft": 717,
      "Ġpo": 718,
      "ning": 719,
      "Ġinter": 720,
      "Ġhel": 721,
      "Ġ19": 722,
      "ject": 723,
      "ful": 724,
      "ĠV": 725,
      "Ġrel": 726,
      "ĠCh": 727,
      "Ġ0": 728,
      "round": 729,
      "ments": 730,
      "Ġany": 731,
      "ob": 732,
      "erv": 733,
      "Ġsuch": 734,
      "Ġmay": 735,
      "ative": 736,
      "Ġdes": 737,
      "Ġmod": 738,
      "stem": 739,
      "Ġhelp": 740,
      "rit": 741,
      "yp": 742,
      "rib": 743,
      "irst": 744,
      "row": 745,
      "Ġdiffere": 746,
      "Ġnew": 747,
      "Ġfun": 748,
      "Ġam": 749,
      "ular": 750,
      "ople": 751,
      "ail": 752,
      "Ġ6": 753,
      "Ġ4": 754,
      "Ġacc": 755,
      "Ġneed": 756,
      "Ġnum": 757,
      "Ġact": 758,
      "Ġgen": 759,
      "cess": 760,
      "lic": 761,
      "Ġspec": 762,
      "ĠThey": 763,
      "ient": 764,
      "lud": 765,
      "ility": 766,
      "ark": 767,
      "ble": 768,
      "ures": 769,
      "Ġrep": 770,
      "Ġshe": 771,
      "Ġthrough": 772,
      "Ġco": 773,
      "Ġexp": 774,
      "ian": 775,
      "ause": 776,
      "Ġob": 777,
      "red": 778,
      "Ġsm": 779,
      "Ġtwo": 780,
      "ink": 781,
      "ract": 782,
      "Ġno": 783,
      "Ġeff": 784,
      "'t": 785,
      "oth": 786,
      "Ġdec": 787,
      "ĠâĢĵ": 788,
      "ise": 789,
      "hed": 790,
      "uring": 791,
      "Ġpeople": 792,
      "als": 793,
      "ĠĠĠĠ": 794,
      "eg": 795,
      "Ġbeen": 796,
      "Ġph": 797,
      "ween": 798,
      "ution": 799,
      "Ġbl": 800,
      "Ġ5": 801,
      "hen": 802,
      "ata": 803,
      "ced": 804,
      "Ġreg": 805,
      "Ġpos": 806,
      "Ġval": 807,
      "Ġcould": 808,
      "Ġexam": 809,
      "Ġyear": 810,
      "$$": 811,
      "Ġass": 812,
      "Ġbetween": 813,
      "old": 814,
      "Ġform": 815,
      "Ġwhere": 816,
      "Ġprov": 817,
      "ck": 818,
      "Ġused": 819,
      "Ġonly": 820,
      "ange": 821,
      "Ġsim": 822,
      "Ġsystem": 823,
      "Ġsaid": 824,
      "ren": 825,
      "ible": 826,
      "erm": 827,
      "{\\": 828,
      "Ġadd": 829,
      "Ġinv": 830,
      "Ġthen": 831,
      "velop": 832,
      "itt": 833,
      "ational": 834,
      "Ġrem": 835,
      "Ġfirst": 836,
      "In": 837,
      "Ġinclud": 838,
      "Ġvari": 839,
      "Ġexpl": 840,
      "ious": 841,
      "tain": 842,
      "fter": 843,
      "Ġlear": 844,
      "Ġac": 845,
      "ased": 846,
      "alth": 847,
      "Ġ201": 848,
      "Ġtrans": 849,
      "Ġdisc": 850,
      "Ġinst": 851,
      "ower": 852,
      "Ġsub": 853,
      "get": 854,
      "Ġget": 855,
      "own": 856,
      "Ġcre": 857,
      "Ġequ": 858,
      "ram": 859,
      "Ġprodu": 860,
      "Ġoff": 861,
      "Ġset": 862,
      "Ġmany": 863,
      "fore": 864,
      "tern": 865,
      "sel": 866,
      "Ġdifferent": 867,
      "Ġdi": 868,
      "Ġpr": 869,
      "Ġmost": 870,
      "Ġsur": 871,
      "its": 872,
      "Ġevery": 873,
      "cy": 874,
      "Ġeach": 875,
      "20": 876,
      "ict": 877,
      "ues": 878,
      "stand": 879,
      "ick": 880,
      "Ġvery": 881,
      "erg": 882,
      "ĠShe": 883,
      "nce": 884,
      "chn": 885,
      "ss": 886,
      "Ġjust": 887,
      "Ġusing": 888,
      "Ġsee": 889,
      "Ġday": 890,
      "oy": 891,
      "hes": 892,
      "**": 893,
      "Ġfl": 894,
      "âĢ¢": 895,
      "Ġplay": 896,
      "ollow": 897,
      "Ġwant": 898,
      "Ġmy": 899,
      "rop": 900,
      "Ġbu": 901,
      "Ġsol": 902,
      "hat": 903,
      "pect": 904,
      "Ġexper": 905,
      "ĠUn": 906,
      "Ġdevelop": 907,
      "ĠWe": 908,
      "Ġgra": 909,
      "ied": 910,
      "iss": 911,
      "ten": 912,
      "Ġ7": 913,
      "mer": 914,
      "Ġatt": 915,
      "ential": 916,
      "Ġlook": 917,
      "ural": 918,
      "Ġsign": 919,
      "Ġdist": 920,
      "Ġinf": 921,
      "Ġmake": 922,
      "urn": 923,
      "resent": 924,
      "ax": 925,
      "aking": 926,
      "wn": 927,
      "ade": 928,
      "Ġshould": 929,
      "ize": 930,
      "cept": 931,
      "Ġcall": 932,
      "Ġeven": 933,
      "ruct": 934,
      "Ġsupp": 935,
      "Ġgener": 936,
      "ience": 937,
      "10": 938,
      "ef": 939,
      "Ġmat": 940,
      "uch": 941,
      "ew": 942,
      "Ġdata": 943,
      "ont": 944,
      "ives": 945,
      "Ġdet": 946,
      "imes": 947,
      "Ġke": 948,
      "ife": 949,
      "Ġfind": 950,
      "Ġstr": 951,
      "ines": 952,
      "ting": 953,
      "Ġdef": 954,
      "ever": 955,
      "Ġfollow": 956,
      "Ġpers": 957,
      "ically": 958,
      "iqu": 959,
      "Ġ+": 960,
      "ature": 961,
      "Ġins": 962,
      "Ġtyp": 963,
      "oci": 964,
      "Ġimport": 965,
      "arch": 966,
      "ĠAn": 967,
      "ness": 968,
      "ts": 969,
      "ps": 970,
      "Ġhigh": 971,
      "Ġback": 972,
      "ited": 973,
      "Ġwell": 974,
      "__": 975,
      "--------": 976,
      "rac": 977,
      "ident": 978,
      "ology": 979,
      "Ġway": 980,
      "Ġresult": 981,
      "gan": 982,
      "Ġcomple": 983,
      "ered": 984,
      "ving": 985,
      "other": 986,
      "hem": 987,
      "ool": 988,
      "Ġbecause": 989,
      "Ġchild": 990,
      "ism": 991,
      "Ġworld": 992,
      "Ġsom": 993,
      "ists": 994,
      "Ġtechn": 995,
      "ward": 996,
      "Ġwhile": 997,
      "ĠFor": 998,
      "ized": 999,
      "ection": 1000,
      "}}": 1001,
      "omm": 1002,
      "aw": 1003,
      "Ġfound": 1004,
      "Ġproble": 1005,
      "Ġ200": 1006,
      "_{": 1007,
      "uc": 1008,
      "Ġwater": 1009,
      "ices": 1010,
      "Ġcur": 1011,
      "Ġpol": 1012,
      "Ġcar": 1013,
      "Ġpoint": 1014,
      "Ġ&": 1015,
      "Ġnumber": 1016,
      "ds": 1017,
      "formation": 1018,
      "vent": 1019,
      "Ġhapp": 1020,
      "Ġpartic": 1021,
      "iew": 1022,
      "Ġboth": 1023,
      "Ġ[": 1024,
      "Ġprocess": 1025,
      "Ġed": 1026,
      "Ġcommun": 1027,
      ".,": 1028,
      "Ġcor": 1029,
      "Ġdoes": 1030,
      "eng": 1031,
      "ng": 1032,
      "Ġunderstand": 1033,
      "Ġhealth": 1034,
      "Th": 1035,
      "Ġlong": 1036,
      "Ġsec": 1037,
      "led": 1038,
      "Ġext": 1039,
      "ave": 1040,
      "ually": 1041,
      "Ġfact": 1042,
      "ved": 1043,
      "iel": 1044,
      "Ġshow": 1045,
      "ages": 1046,
      "Ġthose": 1047,
      "Ġstart": 1048,
      "Ġeffect": 1049,
      "Ġaround": 1050,
      "Ġ$$": 1051,
      "Ġfunction": 1052,
      "ins": 1053,
      "Ġent": 1054,
      "19": 1055,
      "ĠHow": 1056,
      "Ġafter": 1057,
      "hip": 1058,
      "Ġright": 1059,
      "Ġ10": 1060,
      "Ġart": 1061,
      "Ġx": 1062,
      "Ġread": 1063,
      "Ġloc": 1064,
      "ĠAs": 1065,
      "ork": 1066,
      "ined": 1067,
      "Ġhum": 1068,
      "ĠPro": 1069,
      "Ġincre": 1070,
      "Ġrequ": 1071,
      "Ġdid": 1072,
      "gg": 1073,
      ".\"": 1074,
      "ivid": 1075,
      "arm": 1076,
      "ĠIf": 1077,
      "ĠAl": 1078,
      "Ġear": 1079,
      "Ġyears": 1080,
      "cer": 1081,
      "Ġpat": 1082,
      "Ġexample": 1083,
      "ex": 1084,
      "Ġlar": 1085,
      "Ġsame": 1086,
      "Ġduring": 1087,
      "ix": 1088,
      "cl": 1089,
      "Ġsk": 1090,
      "Ġmed": 1091,
      "Ġprog": 1092,
      "ants": 1093,
      "Ġref": 1094,
      "Ġmuch": 1095,
      "riend": 1096,
      "the": 1097,
      "Ġcent": 1098,
      "Ġrese": 1099,
      "Ġfam": 1100,
      "ves": 1101,
      "ethod": 1102,
      "Ġconst": 1103,
      "put": 1104,
      "Ġmodel": 1105,
      "Ġ'": 1106,
      "Ġbeing": 1107,
      "ĠYou": 1108,
      "ien": 1109,
      "Ġmin": 1110,
      "ality": 1111,
      "Ġchar": 1112,
      "Ġmade": 1113,
      "ases": 1114,
      "Ġgrou": 1115,
      "ared": 1116,
      "Ġhim": 1117,
      "frac": 1118,
      "iron": 1119,
      "ty": 1120,
      "Ġcount": 1121,
      "Ġaut": 1122,
      "Ġgood": 1123,
      "con": 1124,
      "Ġagain": 1125,
      "dition": 1126,
      "Ġsmall": 1127,
      "ety": 1128,
      "Ġdep": 1129,
      "ittle": 1130,
      "...": 1131,
      "Ġquest": 1132,
      "chool": 1133,
      "Ġlead": 1134,
      "Ġclass": 1135,
      "Ġdown": 1136,
      "Ġ.": 1137,
      "Ġhist": 1138,
      "Ġend": 1139,
      "ute": 1140,
      "Ġown": 1141,
      "right": 1142,
      "inal": 1143,
      "Ġgl": 1144,
      "math": 1145,
      "uss": 1146,
      "Ġmight": 1147,
      "Ġbefore": 1148,
      "Ġwithin": 1149,
      "ked": 1150,
      "ĠBut": 1151,
      "ability": 1152,
      "ional": 1153,
      "ider": 1154,
      "ather": 1155,
      "Ġfriend": 1156,
      "}{": 1157,
      "ization": 1158,
      "Ġimportant": 1159,
      "Ġca": 1160,
      "ince": 1161,
      "Ġpar": 1162,
      "Ġthough": 1163,
      "self": 1164,
      "akes": 1165,
      "Ġinformation": 1166,
      "ross": 1167,
      "Ġcalled": 1168,
      "Ġthink": 1169,
      "Ġlearn": 1170,
      "ier": 1171,
      "Ġlife": 1172,
      "meric": 1173,
      "der": 1174,
      "iven": 1175,
      "Ġmain": 1176,
      "Ġtake": 1177,
      "itions": 1178,
      "Ġpower": 1179,
      "Ġmon": 1180,
      "Ġhand": 1181,
      "Ġ8": 1182,
      "Ġlet": 1183,
      "ĠRe": 1184,
      "air": 1185,
      "Ġposs": 1186,
      "ergy": 1187,
      "Ġgrow": 1188,
      "Ġlittle": 1189,
      "Ġcare": 1190,
      "line": 1191,
      "ody": 1192,
      "over": 1193,
      "Ġallow": 1194,
      "read": 1195,
      "Ġappro": 1196,
      "Ġpract": 1197,
      "Ġmethod": 1198,
      "ven": 1199,
      "Ġtest": 1200,
      "Ġperson": 1201,
      "Ġnow": 1202,
      "viron": 1203,
      "Ġresp": 1204,
      "Ġcontin": 1205,
      "cul": 1206,
      "ron": 1207,
      "imate": 1208,
      "Ġ18": 1209,
      "ething": 1210,
      "Ġop": 1211,
      "com": 1212,
      "Ġlevel": 1213,
      "Ġreal": 1214,
      "Ġanal": 1215,
      "itive": 1216,
      "Ġvis": 1217,
      "Ġaw": 1218,
      "Ġconf": 1219,
      "ale": 1220,
      "rent": 1221,
      "ock": 1222,
      "Ġdesign": 1223,
      "ox": 1224,
      "Ġstudy": 1225,
      "^{": 1226,
      "ivers": 1227,
      "Ġtoo": 1228,
      "ets": 1229,
      "12": 1230,
      "ars": 1231,
      "Ġav": 1232,
      "ĠEx": 1233,
      "cent": 1234,
      "pr": 1235,
      "Ġpub": 1236,
      "Ġ9": 1237,
      "Ġstate": 1238,
      "Ġgu": 1239,
      "ĠAmeric": 1240,
      "Ġest": 1241,
      "Ġsomething": 1242,
      "bers": 1243,
      "ands": 1244,
      "Ġbig": 1245,
      "Ġless": 1246,
      "}$": 1247,
      "irect": 1248,
      "Ġbel": 1249,
      "###": 1250,
      "ining": 1251,
      "ides": 1252,
      "Ġoften": 1253,
      "000": 1254,
      "Ġpop": 1255,
      "ividual": 1256,
      "up": 1257,
      "und": 1258,
      "ral": 1259,
      "Ġ$\\": 1260,
      "Ġmem": 1261,
      "rol": 1262,
      "Ġelect": 1263,
      "ode": 1264,
      "ering": 1265,
      "Ġcal": 1266,
      "ify": 1267,
      "ator": 1268,
      "ĠThese": 1269,
      "Ġele": 1270,
      "Ġmom": 1271,
      "Ġdon": 1272,
      "Ġstudents": 1273,
      "Ġmust": 1274,
      "Ġprot": 1275,
      "Ġbeh": 1276,
      "Ġide": 1277,
      "ital": 1278,
      "Ġcle": 1279,
      "Ġplan": 1280,
      "ull": 1281,
      "11": 1282,
      "io": 1283,
      "Ġsupport": 1284,
      "erest": 1285,
      "Ġser": 1286,
      "Ġindividual": 1287,
      "Ġcult": 1288,
      "Ġfood": 1289,
      "ots": 1290,
      "Ġident": 1291,
      "Ġmean": 1292,
      "rodu": 1293,
      "ivity": 1294,
      "any": 1295,
      "Ġline": 1296,
      "to": 1297,
      "Ġeng": 1298,
      "Ġmult": 1299,
      "day": 1300,
      "Ġfeel": 1301,
      "Ġve": 1302,
      "Ġthree": 1303,
      "ĠCon": 1304,
      "Ġopt": 1305,
      "ĠAr": 1306,
      "ield": 1307,
      "Ġbr": 1308,
      "ples": 1309,
      "Ġpot": 1310,
      "Ġadv": 1311,
      "ĠAnd": 1312,
      "ories": 1313,
      "ocial": 1314,
      "ateg": 1315,
      "Ġmet": 1316,
      "alk": 1317,
      "raph": 1318,
      "Ġredu": 1319,
      "Ġmeas": 1320,
      "acter": 1321,
      "ired": 1322,
      "ways": 1323,
      "Ġbuild": 1324,
      "ters": 1325,
      "ĠSp": 1326,
      "anc": 1327,
      "Ġorgan": 1328,
      "ĠSc": 1329,
      "Ġtoget": 1330,
      "Ġtogether": 1331,
      "inc": 1332,
      "vironment": 1333,
      "ected": 1334,
      "Ġserv": 1335,
      "Ġbetter": 1336,
      "Ġupon": 1337,
      "Ġtri": 1338,
      "ma": 1339,
      "ished": 1340,
      "Ġ{": 1341,
      "This": 1342,
      "ead": 1343,
      "Ġconn": 1344,
      "ulation": 1345,
      "âĢĵ": 1346,
      "ĠQ": 1347,
      "Ġnon": 1348,
      "Ġthings": 1349,
      "oh": 1350,
      "ĠWh": 1351,
      "Ġenergy": 1352,
      "Ġchildren": 1353,
      "Ġhuman": 1354,
      "ĠBy": 1355,
      "Ġstill": 1356,
      "Ġret": 1357,
      "ĠAd": 1358,
      "ains": 1359,
      "Ġschool": 1360,
      "Ġdel": 1361,
      "Ġbre": 1362,
      "less": 1363,
      "Ġfin": 1364,
      "Ġvalue": 1365,
      "ah": 1366,
      "Ġhere": 1367,
      "Ġoper": 1368,
      "here": 1369,
      "oss": 1370,
      "Ġchange": 1371,
      "par": 1372,
      "ination": 1373,
      "irc": 1374,
      "âĢĶ": 1375,
      "Ġproblem": 1376,
      "ote": 1377,
      "ank": 1378,
      "ĠSo": 1379,
      "Ġanother": 1380,
      "Ġbook": 1381,
      "ee": 1382,
      "ĠInd": 1383,
      "Ġocc": 1384,
      "ug": 1385,
      "omen": 1386,
      "Ġinvol": 1387,
      "Ġinterest": 1388,
      "tt": 1389,
      "Ġdem": 1390,
      "Ġtop": 1391,
      "ner": 1392,
      "Ġcour": 1393,
      "Ġsignific": 1394,
      "aterial": 1395,
      "por": 1396,
      "ouse": 1397,
      ",\"": 1398,
      "ted": 1399,
      "Ġfollowing": 1400,
      "ided": 1401,
      "Ġet": 1402,
      "ources": 1403,
      "Ġproper": 1404,
      "Ġwithout": 1405,
      "Ġeas": 1406,
      "ilar": 1407,
      "Ġperform": 1408,
      "angu": 1409,
      "sw": 1410,
      "atic": 1411,
      "Ġwrit": 1412,
      "ense": 1413,
      "Ġhome": 1414,
      "agn": 1415,
      "ĠThere": 1416,
      "Ġchang": 1417,
      "Ġaff": 1418,
      "Ġcommon": 1419,
      "ash": 1420,
      "ration": 1421,
      "Ġsl": 1422,
      "Ġz": 1423,
      "ik": 1424,
      "Ġgre": 1425,
      "ern": 1426,
      "Ġprom": 1427,
      "mb": 1428,
      "Ġgiven": 1429,
      "Ġresearch": 1430,
      "ique": 1431,
      "Ġlarge": 1432,
      "Ġtem": 1433,
      "Ġincluding": 1434,
      "Ġlearning": 1435,
      "Ġris": 1436,
      "Ġche": 1437,
      "Ġiss": 1438,
      "Ġimpro": 1439,
      "}\\": 1440,
      "Ġcase": 1441,
      "be": 1442,
      "ĠOne": 1443,
      "Ġpresent": 1444,
      "Ġprof": 1445,
      "Ġcell": 1446,
      "osed": 1447,
      "Ġstand": 1448,
      "land": 1449,
      "Ġproduct": 1450,
      "ĠLily": 1451,
      "iving": 1452,
      "Ġpass": 1453,
      "Ġknown": 1454,
      "Ġphys": 1455,
      "my": 1456,
      "ger": 1457,
      "Ġopen": 1458,
      "ĠHowever": 1459,
      "oring": 1460,
      "Ġvarious": 1461,
      "Ġrun": 1462,
      "sc": 1463,
      "15": 1464,
      "Ġbased": 1465,
      "ental": 1466,
      "ision": 1467,
      "ray": 1468,
      "ently": 1469,
      "ĠCom": 1470,
      "ior": 1471,
      "Ġtreat": 1472,
      "Ġstruct": 1473,
      "Ġgreat": 1474,
      "Ġobject": 1475,
      ".âĢĿ": 1476,
      "Ġpres": 1477,
      "âĪ": 1478,
      "Ġlist": 1479,
      "ĠZ": 1480,
      "St": 1481,
      "ole": 1482,
      "iod": 1483,
      "ium": 1484,
      "ret": 1485,
      "Ġcomplex": 1486,
      "Ġcomput": 1487,
      "Ġlight": 1488,
      "Ġbas": 1489,
      "Ġbest": 1490,
      "val": 1491,
      "ĠNew": 1492,
      "ĠSh": 1493,
      "oun": 1494,
      "Ġdirect": 1495,
      "Ġplace": 1496,
      "Ġchall": 1497,
      "de": 1498,
      "ances": 1499,
      "utions": 1500,
      "ember": 1501,
      "ĠWhen": 1502,
      "ries": 1503,
      "Ġopp": 1504,
      "Ġcap": 1505,
      "Ġbody": 1506,
      "Ġdesc": 1507,
      "ling": 1508,
      "13": 1509,
      "Ġenvironment": 1510,
      "Ġgroup": 1511,
      "Ġmeans": 1512,
      "18": 1513,
      "hers": 1514,
      "of": 1515,
      "ccess": 1516,
      "Ġmaterial": 1517,
      "Ġ|": 1518,
      "app": 1519,
      "ological": 1520,
      "Ġbra": 1521,
      "Ġconsider": 1522,
      "ression": 1523,
      "Ġtre": 1524,
      "Ġcer": 1525,
      "ially": 1526,
      "Ġsocial": 1527,
      "Ġter": 1528,
      "ource": 1529,
      "eed": 1530,
      "Ġkeep": 1531,
      "Ġsay": 1532,
      "Ġi": 1533,
      "esp": 1534,
      "iness": 1535,
      "16": 1536,
      "Ġorder": 1537,
      "Ġproject": 1538,
      "Ġcreate": 1539,
      "ason": 1540,
      "verse": 1541,
      "Ġalways": 1542,
      "iversity": 1543,
      "Ġpur": 1544,
      "port": 1545,
      "Ġbelie": 1546,
      "ĠTo": 1547,
      "urther": 1548,
      "Ġgover": 1549,
      "lu": 1550,
      "ĠIs": 1551,
      "aces": 1552,
      "Ġsaf": 1553,
      "ids": 1554,
      "Ġsecond": 1555,
      "Ġtry": 1556,
      "Ġsaw": 1557,
      "ified": 1558,
      "ived": 1559,
      "Ġeduc": 1560,
      "Ġlim": 1561,
      "Ġpotential": 1562,
      "Ġothers": 1563,
      "elf": 1564,
      "Ġnam": 1565,
      "Ġdra": 1566,
      "elt": 1567,
      "ption": 1568,
      "Ġinteg": 1569,
      "Ġspecial": 1570,
      "Ġparticular": 1571,
      "14": 1572,
      "ury": 1573,
      "lish": 1574,
      "Ġel": 1575,
      "Ġold": 1576,
      "Ġmark": 1577,
      "ocus": 1578,
      "Ġben": 1579,
      "Ġmus": 1580,
      "ention": 1581,
      "ency": 1582,
      "Ġput": 1583,
      "oms": 1584,
      "ument": 1585,
      "Ġdue": 1586,
      "Ġess": 1587,
      "Ġfew": 1588,
      "Ġsever": 1589,
      "Ġpossible": 1590,
      "Ġfriends": 1591,
      "Ġpost": 1592,
      "Ġrest": 1593,
      "Ġmove": 1594,
      "Ġunt": 1595,
      "az": 1596,
      "bs": 1597,
      "man": 1598,
      "Ġ12": 1599,
      "//": 1600,
      "Ġlangu": 1601,
      "Ġsit": 1602,
      "oved": 1603,
      "Ġsignificant": 1604,
      "Ġamong": 1605,
      "ĠPh": 1606,
      "17": 1607,
      "Ġspace": 1608,
      "arent": 1609,
      "work": 1610,
      "Ġwhy": 1611,
      "conom": 1612,
      "aj": 1613,
      "Ġarea": 1614,
      "Ġcho": 1615,
      "Ġrepresent": 1616,
      "Ġcontrol": 1617,
      "Ġanim": 1618,
      "olution": 1619,
      "Ġgovern": 1620,
      "ills": 1621,
      "Ġdev": 1622,
      "ane": 1623,
      "Ġbecome": 1624,
      "ĠDe": 1625,
      "Ġenc": 1626,
      "ients": 1627,
      "left": 1628,
      "ysis": 1629,
      "Ġdiscuss": 1630,
      "ording": 1631,
      "ns": 1632,
      "Ġtype": 1633,
      "ext": 1634,
      "oint": 1635,
      "view": 1636,
      "Ġhappy": 1637,
      "Ġ:": 1638,
      "omet": 1639,
      "Ġfamily": 1640,
      "As": 1641,
      "Ġorig": 1642,
      "Ġcurrent": 1643,
      "yn": 1644,
      "Ġens": 1645,
      "Ġimm": 1646,
      "Ġpublic": 1647,
      "Ġdise": 1648,
      "ĠWhat": 1649,
      "ird": 1650,
      "Ġseem": 1651,
      "Ġinclude": 1652,
      "ogn": 1653,
      "ables": 1654,
      "ograph": 1655,
      "ton": 1656,
      "ape": 1657,
      "Ġobs": 1658,
      "ditions": 1659,
      "Ġsince": 1660,
      "plic": 1661,
      "Ġseveral": 1662,
      "Ġ15": 1663,
      "Ġmaking": 1664,
      "atural": 1665,
      "els": 1666,
      "istic": 1667,
      "Ġreport": 1668,
      "Ġsystems": 1669,
      "Ġer": 1670,
      "Ġlaw": 1671,
      "Ġsing": 1672,
      "Ġaway": 1673,
      "Ġfre": 1674,
      "rap": 1675,
      "Ġbo": 1676,
      "Ġansw": 1677,
      "ats": 1678,
      "Ġprovide": 1679,
      "Ġprogram": 1680,
      "lement": 1681,
      "me": 1682,
      "Ġhard": 1683,
      "Ġgr": 1684,
      "aper": 1685,
      "ively": 1686,
      "Ġdevelopment": 1687,
      "ĠX": 1688,
      "ĠCl": 1689,
      "Ġfil": 1690,
      "It": 1691,
      "text": 1692,
      "for": 1693,
      "cing": 1694,
      "Ġcrit": 1695,
      "iter": 1696,
      "Ġdeterm": 1697,
      "ĠĠĠĠĠĠĠĠ": 1698,
      "Ġbus": 1699,
      "Ġhistory": 1700,
      "We": 1701,
      "ĠEng": 1702,
      "Ġalong": 1703,
      "Ġcaus": 1704,
      "Ġdiff": 1705,
      "erc": 1706,
      "side": 1707,
      "____": 1708,
      "br": 1709,
      "Ġleg": 1710,
      "Ġstep": 1711,
      "Ġvol": 1712,
      "usion": 1713,
      "Ġquestion": 1714,
      "nal": 1715,
      "Ġcome": 1716,
      "Ġfocus": 1717,
      "ĠThat": 1718,
      "Ġtru": 1719,
      "irl": 1720,
      "yle": 1721,
      "Ġsays": 1722,
      "Ġcomb": 1723,
      "Ġfore": 1724,
      "orn": 1725,
      "Ġpri": 1726,
      "ope": 1727,
      "Ġagainst": 1728,
      "Ġsw": 1729,
      "ctions": 1730,
      "Ġspecific": 1731,
      "Ġacross": 1732,
      "Ġresults": 1733,
      "Ġbro": 1734,
      "Ġ,": 1735,
      "ortun": 1736,
      "Ġunderstanding": 1737,
      "ert": 1738,
      "play": 1739,
      "Ġturn": 1740,
      "wards": 1741,
      "Ġcalcul": 1742,
      "Ġcertain": 1743,
      "Ġnear": 1744,
      "Ġavail": 1745,
      "Ġlow": 1746,
      "Ġtimes": 1747,
      "not": 1748,
      "Ġapplic": 1749,
      "Ġfac": 1750,
      "Ġaccess": 1751,
      "ĠRes": 1752,
      "Ġflow": 1753,
      "rm": 1754,
      "ĠPl": 1755,
      "sp": 1756,
      "abor": 1757,
      "Ġtool": 1758,
      "gin": 1759,
      "ĠIm": 1760,
      "Ġuntil": 1761,
      "Ġview": 1762,
      "Ġmar": 1763,
      "atch": 1764,
      "Ġrelations": 1765,
      "amet": 1766,
      "by": 1767,
      "thing": 1768,
      "apter": 1769,
      "ctor": 1770,
      "Ġtext": 1771,
      "face": 1772,
      "Ġexplore": 1773,
      "Ġrad": 1774,
      "Ġlocal": 1775,
      "Ġsimilar": 1776,
      "Ġmeasure": 1777,
      "uture": 1778,
      "Ġprob": 1779,
      "izing": 1780,
      "Ġlast": 1781,
      "Ġhig": 1782,
      "Ġvalues": 1783,
      "Ġstrong": 1784,
      "etic": 1785,
      "icle": 1786,
      "Ġcost": 1787,
      "Ġwanted": 1788,
      "Ġauth": 1789,
      "gen": 1790,
      "Ġpain": 1791,
      "Ġaddition": 1792,
      "Ġnet": 1793,
      "Ġname": 1794,
      "Ġperiod": 1795,
      "Ġcirc": 1796,
      "oid": 1797,
      "Ġcontrib": 1798,
      "Ġabove": 1799,
      "Ġcharacter": 1800,
      "Ġwr": 1801,
      "outh": 1802,
      "ised": 1803,
      "Ġsuccess": 1804,
      "ards": 1805,
      "||": 1806,
      "ians": 1807,
      "Ġsoci": 1808,
      "ĠĊ": 1809,
      "Ġsum": 1810,
      "50": 1811,
      "----------------": 1812,
      "Ġassoci": 1813,
      "aps": 1814,
      "Ġant": 1815,
      "ending": 1816,
      "amp": 1817,
      "idence": 1818,
      "``": 1819,
      "Ġcorre": 1820,
      "Ġproblems": 1821,
      "Ġkind": 1822,
      "Ġinvest": 1823,
      "ilities": 1824,
      "ffic": 1825,
      "Ġfree": 1826,
      "ĠEn": 1827,
      "ĠâĢĺ": 1828,
      "arc": 1829,
      "Ġnext": 1830,
      "!\"": 1831,
      "ators": 1832,
      "Once": 1833,
      "sy": 1834,
      "iting": 1835,
      "aut": 1836,
      "Ġeconom": 1837,
      "Ġkey": 1838,
      "oad": 1839,
      "30": 1840,
      "Ġbehav": 1841,
      "Ġcourse": 1842,
      "Ġexc": 1843,
      "asing": 1844,
      "agement": 1845,
      "ann": 1846,
      "Ġexist": 1847,
      "aring": 1848,
      "Ġconcept": 1849,
      "ploy": 1850,
      "Ġbi": 1851,
      "ĠOr": 1852,
      "):": 1853,
      "What": 1854,
      "Ġpress": 1855,
      "eral": 1856,
      "Ġgive": 1857,
      "ission": 1858,
      "Ġ199": 1859,
      "Ġgirl": 1860,
      "iple": 1861,
      "ĠAmerican": 1862,
      "Ġair": 1863,
      "Ġoccur": 1864,
      "Ġfield": 1865,
      "vious": 1866,
      "Ġimpact": 1867,
      "ights": 1868,
      "ledge": 1869,
      "Ġworks": 1870,
      "Ġbenef": 1871,
      "Ġhy": 1872,
      "Ġable": 1873,
      "Ġdistrib": 1874,
      "Ġ<": 1875,
      "ither": 1876,
      "use": 1877,
      "Ġfar": 1878,
      "iate": 1879,
      "Ġrele": 1880,
      "str": 1881,
      "ĠUniversity": 1882,
      "att": 1883,
      "Ġchalleng": 1884,
      "Ġavailable": 1885,
      "iation": 1886,
      "Ġpred": 1887,
      "Ġ16": 1888,
      "hy": 1889,
      "Ġinit": 1890,
      "ĠCan": 1891,
      "ggest": 1892,
      "ably": 1893,
      "aster": 1894,
      "Ġself": 1895,
      "Ġcr": 1896,
      "den": 1897,
      "ample": 1898,
      "Ġnorm": 1899,
      "200": 1900,
      "ĠAt": 1901,
      "Ġwomen": 1902,
      "Ġearly": 1903,
      "One": 1904,
      "Ġwent": 1905,
      "iences": 1906,
      ")$": 1907,
      "lished": 1908,
      "isc": 1909,
      "Ġthought": 1910,
      "Ġactiv": 1911,
      "pos": 1912,
      "Ġhead": 1913,
      "Ġ17": 1914,
      "Ġways": 1915,
      "Ġrisk": 1916,
      "ume": 1917,
      "Ġfuture": 1918,
      ",âĢĿ": 1919,
      "orts": 1920,
      "If": 1921,
      "ĠWith": 1922,
      "ended": 1923,
      "aging": 1924,
      "Ġessential": 1925,
      "Ġgeneral": 1926,
      "ibr": 1927,
      "rix": 1928,
      "Ġlanguage": 1929,
      "Ġrespect": 1930,
      "rist": 1931,
      "ĊĊ": 1932,
      "Ġwar": 1933,
      "Ġgoing": 1934,
      "Ġnever": 1935,
      "Ġnatural": 1936,
      "Ġcontinu": 1937,
      "Ġsuggest": 1938,
      "Ġland": 1939,
      "Ġnecess": 1940,
      "Ġhaving": 1941,
      "Ġcontain": 1942,
      "Ġmil": 1943,
      "agine": 1944,
      "ĠBe": 1945,
      "ference": 1946,
      "Ġscient": 1947,
      "ication": 1948,
      "Ġmot": 1949,
      "ream": 1950,
      "ĠCol": 1951,
      "Ġrole": 1952,
      "ĠTe": 1953,
      "Ġever": 1954,
      "ĠTim": 1955,
      "Ġrespons": 1956,
      "orth": 1957,
      "ĠOn": 1958,
      "Ġconditions": 1959,
      "Ġleft": 1960,
      "hemat": 1961,
      "ĠSe": 1962,
      "ength": 1963,
      "ges": 1964,
      "Ġdescrib": 1965,
      "ajor": 1966,
      "ĠComm": 1967,
      "An": 1968,
      "Ġmill": 1969,
      "Ġunique": 1970,
      "Ġdri": 1971,
      "Ġobserv": 1972,
      "Ġreturn": 1973,
      "Ġmass": 1974,
      "Ġnamed": 1975,
      "igure": 1976,
      "ĠĠĠ": 1977,
      "Ġstrateg": 1978,
      "ym": 1979,
      "Ġtemper": 1980,
      "Ġmakes": 1981,
      "Ġsure": 1982,
      "pped": 1983,
      "Ġstarted": 1984,
      "Ġtoday": 1985,
      "Ġfour": 1986,
      "Ġsimple": 1987,
      "though": 1988,
      "oura": 1989,
      "âĢľ": 1990,
      "osp": 1991,
      "Ġwords": 1992,
      "Ġrelationship": 1993,
      "obal": 1994,
      "Ġquestions": 1995,
      "Ġ14": 1996,
      "apt": 1997,
      "://": 1998,
      "25": 1999,
      "selves": 2000,
      "Ġareas": 2001,
      "atures": 2002,
      "ĠÂ": 2003,
      "Ġcommunity": 2004,
      "Ġasked": 2005,
      "Ġnumbers": 2006,
      "ule": 2007,
      "ww": 2008,
      "Ġterm": 2009,
      "Ġver": 2010,
      "Ġworking": 2011,
      "Ġsym": 2012,
      "Ġpaper": 2013,
      "lying": 2014,
      "Ġshort": 2015,
      "Ġpast": 2016,
      "Ġenough": 2017,
      "icult": 2018,
      "Ġexperience": 2019,
      "min": 2020,
      "Ġdig": 2021,
      "Ġarg": 2022,
      "99": 2023,
      "Ġside": 2024,
      "icro": 2025,
      "Ġanalysis": 2026,
      "Ġill": 2027,
      "Ġcame": 2028,
      "Ġconnect": 2029,
      "ification": 2030,
      "Ġ#": 2031,
      "Ġchanges": 2032,
      "Ġstory": 2033,
      "pro": 2034,
      "Ġclear": 2035,
      "Ġwhether": 2036,
      "ibility": 2037,
      "Ġsingle": 2038,
      "Ġdisease": 2039,
      "Ġamount": 2040,
      "ina": 2041,
      "Ġtypes": 2042,
      "Ġrece": 2043,
      "Ġinflu": 2044,
      "Ġcode": 2045,
      "?\"": 2046,
      "bb": 2047,
      "Ġey": 2048,
      "Ġ*": 2049,
      "let": 2050,
      "ler": 2051,
      "inary": 2052,
      "nces": 2053,
      "Ġreally": 2054,
      "Ġappear": 2055,
      "ires": 2056,
      "ĠLet": 2057,
      "Ġneg": 2058,
      "Ġtechnology": 2059,
      "ĠBen": 2060,
      "Ġfurther": 2061,
      "Ġyoung": 2062,
      "Ġconcer": 2063,
      "Ġvers": 2064,
      "Ġground": 2065,
      "lection": 2066,
      "Ġlevels": 2067,
      "Ġhigher": 2068,
      "urop": 2069,
      "'re": 2070,
      "Ġgovernment": 2071,
      "omes": 2072,
      "Ġ/": 2073,
      "new": 2074,
      "ones": 2075,
      "To": 2076,
      "Ġang": 2077,
      "Ġbusiness": 2078,
      "Ġmajor": 2079,
      "Ġemb": 2080,
      "Ġsize": 2081,
      "ror": 2082,
      "ĠAll": 2083,
      "Ġcause": 2084,
      "Ġcomplete": 2085,
      "Ġhold": 2086,
      "Ġprevent": 2087,
      "Ġstat": 2088,
      "ored": 2089,
      "stit": 2090,
      "Ġmind": 2091,
      "Ġsqu": 2092,
      "Ġpolit": 2093,
      "Ġneeds": 2094,
      "Ġspecies": 2095,
      "Ġcy": 2096,
      "Ġsound": 2097,
      "22": 2098,
      "utes": 2099,
      ");": 2100,
      "Ġclose": 2101,
      "For": 2102,
      "Ġ`": 2103,
      "Ġfull": 2104,
      "Ġlater": 2105,
      "Ġsens": 2106,
      "Ġpoints": 2107,
      "==": 2108,
      "Ġimprove": 2109,
      "orld": 2110,
      "Ġissues": 2111,
      "iction": 2112,
      "ĠâĢĶ": 2113,
      "chie": 2114,
      "Ġtradition": 2115,
      "Ġblood": 2116,
      "atives": 2117,
      "Ġwee": 2118,
      "Ġcoll": 2119,
      "Ġpattern": 2120,
      "Ġlog": 2121,
      "ames": 2122,
      "Ġpositive": 2123,
      "Ġknowledge": 2124,
      "Ġapproach": 2125,
      "Ġresources": 2126,
      "Ġlay": 2127,
      "ours": 2128,
      "Ġmonth": 2129,
      "ening": 2130,
      "Ġfrequ": 2131,
      "ĠInt": 2132,
      "Ġgroups": 2133,
      "ott": 2134,
      "Ġbegin": 2135,
      "aves": 2136,
      "ney": 2137,
      "iques": 2138,
      "rec": 2139,
      "Ġindividuals": 2140,
      "augh": 2141,
      "asc": 2142,
      "Ġaddress": 2143,
      "Ġidea": 2144,
      "Ġpolic": 2145,
      "action": 2146,
      "ĠSome": 2147,
      "oot": 2148,
      "Ġleast": 2149,
      "Ġ13": 2150,
      "Ġmaintain": 2151,
      "oney": 2152,
      "Ġrequire": 2153,
      "AT": 2154,
      "Ġge": 2155,
      "Ġtheory": 2156,
      "Ġsomeone": 2157,
      "Ġpercent": 2158,
      "ump": 2159,
      "Ġmethods": 2160,
      "lam": 2161,
      "Ġwind": 2162,
      "Ġ**": 2163,
      "chan": 2164,
      "ring": 2165,
      "epend": 2166,
      "Ġpath": 2167,
      "ĠUnited": 2168,
      "Ġtowards": 2169,
      "Ġrate": 2170,
      "Ġprim": 2171,
      "ĠApp": 2172,
      "iding": 2173,
      "Ġskills": 2174,
      "Ġremain": 2175,
      "ush": 2176,
      "Ġage": 2177,
      "Ġhouse": 2178,
      "Ġgrowth": 2179,
      "Ġheart": 2180,
      "af": 2181,
      "imens": 2182,
      "Ġhistor": 2183,
      "Ġcollect": 2184,
      "Ġaccount": 2185,
      "Ġbelow": 2186,
      "Ġtell": 2187,
      "How": 2188,
      "Ġjour": 2189,
      "Ġshare": 2190,
      "Ġindust": 2191,
      "ER": 2192,
      "Ġestab": 2193,
      "Ġparent": 2194,
      "ising": 2195,
      "atory": 2196,
      "gor": 2197,
      "ĠChrist": 2198,
      "fully": 2199,
      "cle": 2200,
      "Ġintrodu": 2201,
      "part": 2202,
      "Ġcountry": 2203,
      "sequ": 2204,
      "Ġrange": 2205,
      "ript": 2206,
      "ales": 2207,
      "ware": 2208,
      "Ġtook": 2209,
      "urope": 2210,
      "Ġcreat": 2211,
      "Ġdetail": 2212,
      "Ġprofess": 2213,
      "aries": 2214,
      "Ġmen": 2215,
      "40": 2216,
      "ÂłÂł": 2217,
      "Ġdifficult": 2218,
      "Ġopportun": 2219,
      "itud": 2220,
      "Ġstructure": 2221,
      "Ġquant": 2222,
      "ĠMay": 2223,
      "Ġsolution": 2224,
      "Ġdom": 2225,
      "une": 2226,
      "Ġtreatment": 2227,
      "ruction": 2228,
      "Now": 2229,
      "Ġtot": 2230,
      "Ġgot": 2231,
      "ened": 2232,
      "iver": 2233,
      "Ġinstead": 2234,
      "illed": 2235,
      "Ġanswer": 2236,
      "There": 2237,
      "Ġassociated": 2238,
      "Ġcells": 2239,
      "ĠEar": 2240,
      "sh": 2241,
      "Ġrather": 2242,
      "anced": 2243,
      "ĠSy": 2244,
      "Ġplant": 2245,
      "Ġdays": 2246,
      "iled": 2247,
      "Ġterms": 2248,
      "(\\": 2249,
      "Ġsurface": 2250,
      "Ġbound": 2251,
      "Ġeducation": 2252,
      "Ġreason": 2253,
      "Ġphysical": 2254,
      "Ġcompon": 2255,
      "verage": 2256,
      "ĠGod": 2257,
      "Ġfunctions": 2258,
      "fer": 2259,
      "Ġelements": 2260,
      "Ġachie": 2261,
      "Ġphot": 2262,
      "ĠQu": 2263,
      "Ġgraph": 2264,
      "duct": 2265,
      "Ġindic": 2266,
      "ery": 2267,
      "ecially": 2268,
      "Ġfund": 2269,
      "Ġeffic": 2270,
      "But": 2271,
      "Ġred": 2272,
      "Ġvir": 2273,
      "acy": 2274,
      "Ġeither": 2275,
      "II": 2276,
      "Ġrecogn": 2277,
      "Ġthroughout": 2278,
      "Ġsat": 2279,
      "imal": 2280,
      "Ġliter": 2281,
      "bl": 2282,
      "Ġdeg": 2283,
      "Ġ30": 2284,
      "Ġ$$\\": 2285,
      "Ġlove": 2286,
      "Ġprinc": 2287,
      "Ġdone": 2288,
      "Al": 2289,
      "Ġfelt": 2290,
      "Ġsitu": 2291,
      "Ġprop": 2292,
      "ĠLe": 2293,
      "Ġunit": 2294,
      "Ġinside": 2295,
      "Ġoutside": 2296,
      "So": 2297,
      "ences": 2298,
      "Ġteac": 2299,
      "Ġfactors": 2300,
      "Ġlower": 2301,
      "gorith": 2302,
      "Ġusually": 2303,
      "Ġdeep": 2304,
      "Ġscience": 2305,
      "Ġtrue": 2306,
      "Ġpractice": 2307,
      "Ġcomes": 2308,
      "ged": 2309,
      "Ġincrease": 2310,
      "Ġemploy": 2311,
      "Ġlot": 2312,
      "Ġsoft": 2313,
      "Ġdoc": 2314,
      "ĠBl": 2315,
      "You": 2316,
      "esc": 2317,
      "Ġmov": 2318,
      "ĠEurope": 2319,
      "Ġquick": 2320,
      "))": 2321,
      "ero": 2322,
      "rans": 2323,
      "Ġteam": 2324,
      "Ġnature": 2325,
      "Ġmodern": 2326,
      "ĠAf": 2327,
      "Ġflu": 2328,
      "Ġauthor": 2329,
      "0000": 2330,
      "ĠStates": 2331,
      "especially": 2332,
      "Ġfile": 2333,
      "Ġdr": 2334,
      "Ch": 2335,
      "Ġ11": 2336,
      "Ġequation": 2337,
      "ules": 2338,
      "When": 2339,
      "Ġsuper": 2340,
      "Ġchem": 2341,
      "Ġtalk": 2342,
      "set": 2343,
      "Ġprotect": 2344,
      "60": 2345,
      "Ġneeded": 2346,
      "king": 2347,
      "Ġregard": 2348,
      "ohn": 2349,
      "Ġabs": 2350,
      "Ġparticip": 2351,
      "Ġaspect": 2352,
      "ynam": 2353,
      "ĠFr": 2354,
      "Ġ)": 2355,
      "Ġevent": 2356,
      "}$$": 2357,
      "imum": 2358,
      "Ġhowever": 2359,
      "Ġeveryone": 2360,
      "aim": 2361,
      "Ġbecame": 2362,
      "alf": 2363,
      "ready": 2364,
      "Ġseen": 2365,
      "ately": 2366,
      "Ġexperim": 2367,
      "where": 2368,
      "aken": 2369,
      "Ġrecord": 2370,
      "mbol": 2371,
      "ises": 2372,
      "na": 2373,
      "ĠCont": 2374,
      "Ġsomet": 2375,
      "ival": 2376,
      "Ġimplement": 2377,
      "Ġcases": 2378,
      "âĢ¦": 2379,
      "oll": 2380,
      "Ġanimals": 2381,
      "Ġparamet": 2382,
      "most": 2383,
      "Ġpopulation": 2384,
      "23": 2385,
      "Ġ>": 2386,
      "bo": 2387,
      "Ġlooked": 2388,
      "rams": 2389,
      "Ġlikely": 2390,
      "Ġexplain": 2391,
      "Ġeffects": 2392,
      "overed": 2393,
      "Ġloved": 2394,
      "ĠMed": 2395,
      "$.": 2396,
      "Ġpersonal": 2397,
      "come": 2398,
      "Ex": 2399,
      "Ġonline": 2400,
      "arr": 2401,
      "Ġexpress": 2402,
      "eb": 2403,
      "Ġallows": 2404,
      "Ġbuilding": 2405,
      "ĠEm": 2406,
      "Ġsource": 2407,
      "21": 2408,
      "ulations": 2409,
      "Ġcheck": 2410,
      "Ġaffect": 2411,
      "ĠCent": 2412,
      "Ġdraw": 2413,
      "Ġalready": 2414,
      "ties": 2415,
      "Ġactivities": 2416,
      "arget": 2417,
      "Ġespecially": 2418,
      "Ġsometimes": 2419,
      "ming": 2420,
      "Ġloss": 2421,
      "âĪĴ": 2422,
      "Ġcorrect": 2423,
      "roll": 2424,
      "rict": 2425,
      "Ġdog": 2426,
      "Ġtree": 2427,
      "Ġsun": 2428,
      "ends": 2429,
      "Ġder": 2430,
      "Ġonce": 2431,
      "Ã©": 2432,
      "rel": 2433,
      "rt": 2434,
      "Ġstandard": 2435,
      "Ġprec": 2436,
      "Ġsubject": 2437,
      "ilt": 2438,
      "Ġglobal": 2439,
      "ung": 2440,
      "Ġrepl": 2441,
      "org": 2442,
      "Ġmach": 2443,
      "Ġmess": 2444,
      "Ġconsum": 2445,
      "Ġcolor": 2446,
      "Ġmultiple": 2447,
      "80": 2448,
      "Ġsafe": 2449,
      "ĠCal": 2450,
      "like": 2451,
      "Ġhelps": 2452,
      "Ġfamil": 2453,
      "ply": 2454,
      "ĠSu": 2455,
      "ĠUS": 2456,
      "Ġmaterials": 2457,
      "aling": 2458,
      "wh": 2459,
      "Ġactually": 2460,
      "Ġtechniques": 2461,
      "atter": 2462,
      "ips": 2463,
      "aching": 2464,
      "Ġbeaut": 2465,
      "orks": 2466,
      "ula": 2467,
      "ison": 2468,
      "lt": 2469,
      "Ġyet": 2470,
      "Ġstudies": 2471,
      "Ġliving": 2472,
      "joy": 2473,
      "urity": 2474,
      "Ġmor": 2475,
      "ĠGen": 2476,
      "Ġbir": 2477,
      "Ġdefin": 2478,
      "Ġbrain": 2479,
      "ned": 2480,
      "Ġmagn": 2481,
      "ites": 2482,
      "clusion": 2483,
      "astic": 2484,
      "yth": 2485,
      "Ġdidn": 2486,
      "Ġtotal": 2487,
      "Ġanaly": 2488,
      "earch": 2489,
      "Ġdam": 2490,
      "sych": 2491,
      "Ġmeet": 2492,
      "Ġexact": 2493,
      "istics": 2494,
      "Ġrelig": 2495,
      "ĠMar": 2496,
      "'ll": 2497,
      "Ġcut": 2498,
      "Ġcannot": 2499,
      "Ġlab": 2500,
      "Ġchallenges": 2501,
      "Ġwa": 2502,
      "Ġcontext": 2503,
      "Ġmeaning": 2504,
      "reen": 2505,
      "ĠThen": 2506,
      "Ġresearc": 2507,
      "Ġcountries": 2508,
      "Ġbreak": 2509,
      "med": 2510,
      "Ġlength": 2511,
      "ĠMe": 2512,
      "Ġensure": 2513,
      "Ġprovides": 2514,
      "ched": 2515,
      "ze": 2516,
      "Ġword": 2517,
      "Ġimage": 2518,
      "ta": 2519,
      "Ġsepar": 2520,
      "Ġemot": 2521,
      "Ġmechan": 2522,
      "24": 2523,
      "Ġdoing": 2524,
      "Ġcentury": 2525,
      "ĠStud": 2526,
      "idd": 2527,
      "Ġaccording": 2528,
      "bra": 2529,
      "Ġengine": 2530,
      "Ġhtt": 2531,
      "uth": 2532,
      "Ġwhole": 2533,
      "oph": 2534,
      "Ġnecessary": 2535,
      "Ġâ": 2536,
      "equ": 2537,
      "lex": 2538,
      "Ġthemselves": 2539,
      "Ġalgorith": 2540,
      "Ġinput": 2541,
      "Ġevents": 2542,
      "ĠAfter": 2543,
      "ĠGe": 2544,
      "Ġprevious": 2545,
      "Ġcondition": 2546,
      "Ġwond": 2547,
      "Ġquality": 2548,
      "alu": 2549,
      "ĠNational": 2550,
      "Ġbal": 2551,
      "Ġsense": 2552,
      "Ġtools": 2553,
      "ried": 2554,
      "####": 2555,
      "inally": 2556,
      "Ġmax": 2557,
      "Ġdecided": 2558,
      "AS": 2559,
      "oman": 2560,
      "Ġincreasing": 2561,
      "Ġstates": 2562,
      "Ġshows": 2563,
      "nov": 2564,
      "Ġconsist": 2565,
      "cial": 2566,
      "avor": 2567,
      "Ġrequired": 2568,
      "Ġmembers": 2569,
      "Ġcommunities": 2570,
      "iol": 2571,
      "Let": 2572,
      "Ġball": 2573,
      "ĠMore": 2574,
      "Ġtemperature": 2575,
      "Ġsequ": 2576,
      "Ġmatter": 2577,
      "Ġrelated": 2578,
      "ĠMat": 2579,
      "oon": 2580,
      "ask": 2581,
      "Ġcreated": 2582,
      "Ġproduction": 2583,
      "reng": 2584,
      "aches": 2585,
      "pper": 2586,
      "hold": 2587,
      "'m": 2588,
      "angle": 2589,
      "Ġpressure": 2590,
      "Ġseries": 2591,
      "Ġfall": 2592,
      "Ġmarket": 2593,
      "Ġmusic": 2594,
      "Ġplaying": 2595,
      "Ġ}": 2596,
      "ĠDo": 2597,
      "Ġgain": 2598,
      "Ġplants": 2599,
      "Ġintern": 2600,
      "Ġbehavior": 2601,
      "light": 2602,
      "\",": 2603,
      "Ġpict": 2604,
      "Ġfr": 2605,
      "ĠNo": 2606,
      "Ġentire": 2607,
      "ĠAfric": 2608,
      "Ġtaking": 2609,
      "Ġparts": 2610,
      "Ġconsid": 2611,
      "yl": 2612,
      "imately": 2613,
      "Ġthing": 2614,
      "go": 2615,
      "Ġdoesn": 2616,
      "Ġmodels": 2617,
      "Ġinstance": 2618,
      "bon": 2619,
      "Ġ...": 2620,
      "Ġ100": 2621,
      "Ġperformance": 2622,
      "uck": 2623,
      "Ġpopular": 2624,
      "ES": 2625,
      "based": 2626,
      "Ġdistribution": 2627,
      "Ġ25": 2628,
      "uments": 2629,
      "dis": 2630,
      "style": 2631,
      "fect": 2632,
      "Ġdemon": 2633,
      "ift": 2634,
      "\".": 2635,
      "Ġproducts": 2636,
      "Ġoriginal": 2637,
      "Ġut": 2638,
      "Ġclean": 2639,
      "elling": 2640,
      "ĠWhile": 2641,
      "lease": 2642,
      "Ġcust": 2643,
      "ĠÎ": 2644,
      "Ġenjoy": 2645,
      "Ġpay": 2646,
      "Ġblack": 2647,
      "ndom": 2648,
      "ging": 2649,
      "way": 2650,
      "Ġregular": 2651,
      "rad": 2652,
      "Ġstories": 2653,
      "Ġlive": 2654,
      "=\\": 2655,
      "opy": 2656,
      "sing": 2657,
      "Ġcritical": 2658,
      "Ġfram": 2659,
      "itation": 2660,
      "ows": 2661,
      "Ġselect": 2662,
      "Ġitself": 2663,
      "ender": 2664,
      "Ġexperiences": 2665,
      "Ġnumer": 2666,
      "igen": 2667,
      "Ġfail": 2668,
      "Ġpoly": 2669,
      "erve": 2670,
      "istance": 2671,
      "ĠMan": 2672,
      "Ġmanagement": 2673,
      "Ġencoura": 2674,
      "Ġmoney": 2675,
      "ny": 2676,
      "AR": 2677,
      "reg": 2678,
      "Ġjob": 2679,
      "Ġstra": 2680,
      "Ġmicro": 2681,
      "ĠWorld": 2682,
      "Ġweight": 2683,
      ".)": 2684,
      "70": 2685,
      "Ġnut": 2686,
      "raft": 2687,
      "....": 2688,
      "ores": 2689,
      "Ġevidence": 2690,
      "more": 2691,
      "âĢī": 2692,
      "Ġlives": 2693,
      "Ġpack": 2694,
      "ĠHis": 2695,
      "Ġbar": 2696,
      "ĠFrom": 2697,
      "ĠAss": 2698,
      "Ġharm": 2699,
      "ixed": 2700,
      "Ġlooking": 2701,
      "Ġmatrix": 2702,
      "$,": 2703,
      "()": 2704,
      "Ġport": 2705,
      "Ġbit": 2706,
      "Ġstay": 2707,
      "Ġnormal": 2708,
      "ĠTom": 2709,
      "ĠCar": 2710,
      "ype": 2711,
      "Ġcomputer": 2712,
      "Ġvalu": 2713,
      "Ġposition": 2714,
      "Ġactivity": 2715,
      "Ġtarget": 2716,
      "ĠWar": 2717,
      "Ġdeath": 2718,
      "Ġequal": 2719,
      "Ġarticle": 2720,
      "Ġcompet": 2721,
      "Ġgame": 2722,
      "Ġface": 2723,
      "resp": 2724,
      "ey": 2725,
      "Ġeffective": 2726,
      "Ġshown": 2727,
      "Ġ--": 2728,
      "Ġemerg": 2729,
      "Con": 2730,
      "Ġforce": 2731,
      "ĠSim": 2732,
      "Ġestim": 2733,
      "Ġcity": 2734,
      "Ġevalu": 2735,
      "ground": 2736,
      "rug": 2737,
      "IN": 2738,
      "Ġoutput": 2739,
      "Ġsent": 2740,
      "Ġmillion": 2741,
      "Ġcru": 2742,
      "Ġtraditional": 2743,
      "Ġremember": 2744,
      "Ġwide": 2745,
      "ĠEarth": 2746,
      "Â·": 2747,
      "inter": 2748,
      "Ġlink": 2749,
      "Ġincreased": 2750,
      "Ġnetwork": 2751,
      "Ġsimply": 2752,
      "Ġobtain": 2753,
      "Ġtaken": 2754,
      "Ġur": 2755,
      "Ġconstant": 2756,
      "Ġinteract": 2757,
      "ley": 2758,
      "Ġstreng": 2759,
      "ropri": 2760,
      "Ġstress": 2761,
      "ĠRep": 2762,
      "Ġaction": 2763,
      "Ġbehind": 2764,
      "aged": 2765,
      "enc": 2766,
      "Ġinterp": 2767,
      "Ġlearned": 2768,
      "onse": 2769,
      "Ġcat": 2770,
      "Ġarch": 2771,
      "Ġreflect": 2772,
      "anks": 2773,
      "Ġanc": 2774,
      "Ġconsidered": 2775,
      "ault": 2776,
      "Ġcancer": 2777,
      "Ġpatients": 2778,
      "Ã¢": 2779,
      "Ġexerc": 2780,
      "egin": 2781,
      "Ġlo": 2782,
      "aced": 2783,
      "ĠPr": 2784,
      "leep": 2785,
      "Ġsociety": 2786,
      "Ġtravel": 2787,
      "ĠBrit": 2788,
      "ches": 2789,
      "het": 2790,
      "Ġcreating": 2791,
      "Ġpredict": 2792,
      "Ġdiv": 2793,
      "Ġemp": 2794,
      "ĠÂł": 2795,
      "met": 2796,
      "uted": 2797,
      "pping": 2798,
      "Ġeasy": 2799,
      "Ġreduce": 2800,
      "ils": 2801,
      "Ġcapt": 2802,
      "Ġbegan": 2803,
      "ptoms": 2804,
      "Ġdifference": 2805,
      "Ġconver": 2806,
      "Ġculture": 2807,
      "Ġgas": 2808,
      "Ġspe": 2809,
      "Ġuses": 2810,
      "Ġetc": 2811,
      "26": 2812,
      "Ġsett": 2813,
      "nderstand": 2814,
      "ields": 2815,
      "Ġda": 2816,
      "inating": 2817,
      "ublic": 2818,
      "ĠIntern": 2819,
      "Ġslow": 2820,
      "acc": 2821,
      "empt": 2822,
      "Ġcultural": 2823,
      "ĠEnglish": 2824,
      "fact": 2825,
      "Ġidentify": 2826,
      "Ġregion": 2827,
      "33": 2828,
      "ython": 2829,
      "Ġwhite": 2830,
      "Ġtakes": 2831,
      "Ġsite": 2832,
      "Ġpark": 2833,
      "Ġappl": 2834,
      "27": 2835,
      "Ġboy": 2836,
      "Ġann": 2837,
      "Ġheat": 2838,
      "ene": 2839,
      "Ġpolitical": 2840,
      "Ġago": 2841,
      "Ġpractices": 2842,
      "ĠGerm": 2843,
      "bit": 2844,
      "Ġindepend": 2845,
      "ae": 2846,
      "Ġrelative": 2847,
      "Ġlines": 2848,
      "Ġdeveloped": 2849,
      "back": 2850,
      "Ġshap": 2851,
      "Ġwalk": 2852,
      "Ġtraining": 2853,
      "hood": 2854,
      "Ġtable": 2855,
      "Ġaim": 2856,
      "Ġaltern": 2857,
      "Ġcross": 2858,
      "ON": 2859,
      "Ġspeed": 2860,
      "Ġability": 2861,
      "Ġprovided": 2862,
      "Ġreading": 2863,
      "Ġenh": 2864,
      "Ġrights": 2865,
      "ĠJohn": 2866,
      "Ġdemonstr": 2867,
      "Ġhalf": 2868,
      "hern": 2869,
      "hib": 2870,
      "Ġresearchers": 2871,
      "porary": 2872,
      "Ġwrite": 2873,
      "ster": 2874,
      "itude": 2875,
      "Ġwritten": 2876,
      "},": 2877,
      "Ġbox": 2878,
      "ĠAb": 2879,
      "Ġste": 2880,
      "Ġmathemat": 2881,
      "isions": 2882,
      "mber": 2883,
      "Ġgreen": 2884,
      "Ġfish": 2885,
      "Ġ50": 2886,
      "Ġvide": 2887,
      "Ġbring": 2888,
      "mon": 2889,
      "ems": 2890,
      "Ġfeed": 2891,
      "28": 2892,
      "Ġgreater": 2893,
      "Ġforms": 2894,
      "Im": 2895,
      "Ġpage": 2896,
      "ached": 2897,
      "Ġenvironmental": 2898,
      "Ġsection": 2899,
      "order": 2900,
      "orpor": 2901,
      "Ġmedical": 2902,
      "Ġtherap": 2903,
      "Ġapprec": 2904,
      "Ġrandom": 2905,
      "34": 2906,
      "Ġsmiled": 2907,
      "29": 2908,
      "Ġservices": 2909,
      "ivil": 2910,
      "Ġri": 2911,
      "Ġpriv": 2912,
      "Ġnegative": 2913,
      "ops": 2914,
      "Ġyourself": 2915,
      "Ġsal": 2916,
      "Ġclimate": 2917,
      "itted": 2918,
      "Ġcontinue": 2919,
      "iet": 2920,
      "oud": 2921,
      "mat": 2922,
      "Ġdynam": 2923,
      "Ġelse": 2924,
      "raction": 2925,
      "ĠTimmy": 2926,
      "ensity": 2927,
      "Ġsolutions": 2928,
      "ĠCons": 2929,
      "bf": 2930,
      "Ġones": 2931,
      "Ġ24": 2932,
      "iddle": 2933,
      "ĠGu": 2934,
      "fficient": 2935,
      "Ġaccept": 2936,
      "Ġheav": 2937,
      "Ġce": 2938,
      "Ġrecomm": 2939,
      "Ġroom": 2940,
      "arily": 2941,
      "vant": 2942,
      "iful": 2943,
      "itor": 2944,
      "Ġsymbol": 2945,
      "cos": 2946,
      "wise": 2947,
      "âĤ": 2948,
      "mathrm": 2949,
      "Ġoffer": 2950,
      "Ġhistorical": 2951,
      "Ġdest": 2952,
      "amples": 2953,
      "emic": 2954,
      "Wh": 2955,
      "ĠNow": 2956,
      "Ġfive": 2957,
      "ĠMod": 2958,
      "ĠYour": 2959,
      "ĠCo": 2960,
      "Ġaverage": 2961,
      "Ġsurround": 2962,
      "Ġcool": 2963,
      "ĠAct": 2964,
      "Ġhours": 2965,
      "Ġran": 2966,
      "Ġproduce": 2967,
      "Ġeverything": 2968,
      "Ġfeatures": 2969,
      "icles": 2970,
      "Ġdefined": 2971,
      "Ġcontent": 2972,
      "Ġbasic": 2973,
      "Ġattention": 2974,
      "Ġapprox": 2975,
      "$\\": 2976,
      "yond": 2977,
      "ceed": 2978,
      "Ġprote": 2979,
      "lation": 2980,
      "respond": 2981,
      "Ġsust": 2982,
      "Ġdesigned": 2983,
      "NA": 2984,
      "reme": 2985,
      "Ġcook": 2986,
      "Ġhealthy": 2987,
      "ommy": 2988,
      "qrt": 2989,
      "Ġheard": 2990,
      "Ġparents": 2991,
      "ounter": 2992,
      "urs": 2993,
      "ĠAm": 2994,
      "Ġassess": 2995,
      "Ġla": 2996,
      "Ġrecent": 2997,
      "izations": 2998,
      "pi": 2999,
      "ai": 3000,
      "Ġclaim": 3001,
      "pha": 3002,
      "Ġadapt": 3003,
      "Ġmoment": 3004,
      "Ġtrying": 3005,
      "playstyle": 3006,
      "Ġbooks": 3007,
      "ĠHist": 3008,
      "Ġalmost": 3009,
      "ĠThrough": 3010,
      "ĠPer": 3011,
      "oor": 3012,
      "onal": 3013,
      "Ġwriting": 3014,
      "Ġadult": 3015,
      "35": 3016,
      "Ġstudent": 3017,
      "cd": 3018,
      "Ġshape": 3019,
      "Ġconc": 3020,
      "Ġapplications": 3021,
      "rast": 3022,
      "Ġeconomic": 3023,
      "Ġbird": 3024,
      "Ġinsp": 3025,
      "Ġweek": 3026,
      "39": 3027,
      "pid": 3028,
      "Ġbelieve": 3029,
      "Ġclos": 3030,
      "ured": 3031,
      "Ġconduct": 3032,
      "Ġfast": 3033,
      "Ġquickly": 3034,
      "iny": 3035,
      "Ġoffic": 3036,
      "olic": 3037,
      "Ġdistance": 3038,
      "Ġlinear": 3039,
      "Ġelement": 3040,
      "ĠHealth": 3041,
      "Ġdou": 3042,
      "Ġgetting": 3043,
      "Ġexploring": 3044,
      "],": 3045,
      "Ġeat": 3046,
      "itle": 3047,
      "Ġassum": 3048,
      "Ġsad": 3049,
      "Ġrev": 3050,
      "Ġlonger": 3051,
      "ologies": 3052,
      "Ġtransform": 3053,
      "Ġsources": 3054,
      "Ġresponse": 3055,
      "Ġsymptoms": 3056,
      "Ġpatterns": 3057,
      "Ġsustain": 3058,
      "Ġbenefits": 3059,
      "Ġparticularly": 3060,
      "Ġideas": 3061,
      "Ġcommunication": 3062,
      "uel": 3063,
      "ura": 3064,
      "Ġleading": 3065,
      "ners": 3066,
      "rig": 3067,
      "rown": 3068,
      "lim": 3069,
      "Ġavoid": 3070,
      "Ġinnov": 3071,
      "Ġsubst": 3072,
      "Ġeth": 3073,
      "Ġproperties": 3074,
      "ID": 3075,
      "eration": 3076,
      "Ġinvestig": 3077,
      ")(": 3078,
      "dom": 3079,
      "Ġdocument": 3080,
      "Ġwarm": 3081,
      "Ġcompared": 3082,
      "displaystyle": 3083,
      "Ġchemical": 3084,
      "Ġprint": 3085,
      "urt": 3086,
      "Ġtold": 3087,
      "Ġprocesses": 3088,
      "'ve": 3089,
      "ius": 3090,
      "Ġhyd": 3091,
      "Ġsoon": 3092,
      "itting": 3093,
      "iples": 3094,
      "ography": 3095,
      "Ġbad": 3096,
      "ĠAmerica": 3097,
      "Ġlands": 3098,
      "Ġinvolved": 3099,
      "irit": 3100,
      "time": 3101,
      "Ġintegr": 3102,
      "Ġcustom": 3103,
      "urch": 3104,
      "Ġpick": 3105,
      "Ġvaluable": 3106,
      "Ġfire": 3107,
      "Ġadj": 3108,
      "Ġvisual": 3109,
      "eta": 3110,
      "Ġoverall": 3111,
      "Ġattack": 3112,
      "Ġnational": 3113,
      "Ġstrategies": 3114,
      "Ġmedia": 3115,
      "rim": 3116,
      "Ġprograms": 3117,
      "Ġhor": 3118,
      "Ġmole": 3119,
      "osis": 3120,
      "ucle": 3121,
      "Ġequations": 3122,
      "Ġden": 3123,
      "Ġfost": 3124,
      "Ġsteps": 3125,
      "Ġthinking": 3126,
      "Ġquite": 3127,
      "45": 3128,
      "ĠDr": 3129,
      "Ġ65": 3130,
      "Ġox": 3131,
      "Ġgard": 3132,
      "roduction": 3133,
      "Ġdeb": 3134,
      "Ġappropri": 3135,
      "ensive": 3136,
      "IS": 3137,
      "Ġconstruct": 3138,
      "}^{": 3139,
      "Ġreview": 3140,
      "Ġcorrespond": 3141,
      "ĠTra": 3142,
      "ĠHer": 3143,
      "Section": 3144,
      "ĠNot": 3145,
      "Ġissue": 3146,
      "Ġbeautiful": 3147,
      "hel": 3148,
      "Ġexpect": 3149,
      "vey": 3150,
      "iam": 3151,
      "begin": 3152,
      "Ġstri": 3153,
      "Ġaud": 3154,
      "Ġbecomes": 3155,
      "Ġexamples": 3156,
      "ĠSam": 3157,
      "Ġrequires": 3158,
      "Ġhu": 3159,
      "Ġmonths": 3160,
      "aff": 3161,
      "Ġinitial": 3162,
      "Ġbeyond": 3163,
      "Ġsearch": 3164,
      "Ġreve": 3165,
      "ĠPre": 3166,
      "Ġbase": 3167,
      "Ġspread": 3168,
      "ober": 3169,
      "Ġbroad": 3170,
      "Ġsex": 3171,
      "pe": 3172,
      "pose": 3173,
      "Ġcompany": 3174,
      "Ġvia": 3175,
      "Ġdat": 3176,
      "fort": 3177,
      "Ġoil": 3178,
      "Ġbur": 3179,
      "iles": 3180,
      "sqrt": 3181,
      "Ġlimit": 3182,
      "isms": 3183,
      "Ġimportance": 3184,
      "ese": 3185,
      "Ġisn": 3186,
      "ancial": 3187,
      "ibrary": 3188,
      "ronic": 3189,
      "Ġopportunities": 3190,
      "ĠNorth": 3191,
      "Ġhab": 3192,
      "ĠRec": 3193,
      "Ġlarger": 3194,
      "aving": 3195,
      "Ġperfect": 3196,
      "Ġpret": 3197,
      "```": 3198,
      "Ġmedic": 3199,
      "Ġbuilt": 3200,
      "By": 3201,
      "Ġcomponents": 3202,
      "nderstanding": 3203,
      "ĠResearch": 3204,
      "Ġforest": 3205,
      "Ġobjects": 3206,
      "ĠJan": 3207,
      "arrow": 3208,
      "Ġfasc": 3209,
      "ĠComp": 3210,
      "inate": 3211,
      "Ġdrug": 3212,
      "Ġrefer": 3213,
      "Ġjo": 3214,
      "ĠNe": 3215,
      "Ġ23": 3216,
      "Ġpsych": 3217,
      "Ġdecision": 3218,
      "col": 3219,
      "âĤ¬": 3220,
      "Ġgives": 3221,
      "ĠPe": 3222,
      "izes": 3223,
      "Ġcrucial": 3224,
      "Ġlate": 3225,
      "ervation": 3226,
      "Ġadded": 3227,
      "gest": 3228,
      "ara": 3229,
      "Ġseems": 3230,
      "________": 3231,
      "Ġskin": 3232,
      "Ġuser": 3233,
      "Ġfavor": 3234,
      "Ġdetermine": 3235,
      "overy": 3236,
      "Ġchapter": 3237,
      "OR": 3238,
      "ching": 3239,
      "ously": 3240,
      "Ġaware": 3241,
      "olar": 3242,
      "Ġvector": 3243,
      "Ġprogress": 3244,
      "They": 3245,
      "emporary": 3246,
      "Pro": 3247,
      "itary": 3248,
      "Ġperspect": 3249,
      "odes": 3250,
      "ĠScience": 3251,
      "ĠJust": 3252,
      "Ġcontact": 3253,
      "Ġcateg": 3254,
      "ĠSouth": 3255,
      "su": 3256,
      "vere": 3257,
      "oles": 3258,
      "Ġfactor": 3259,
      ")\\": 3260,
      "cal": 3261,
      "ĠSec": 3262,
      "Ġexactly": 3263,
      "iency": 3264,
      "Ġuseful": 3265,
      "Ġmiss": 3266,
      "Ġled": 3267,
      "rought": 3268,
      "Ġsuff": 3269,
      "Ġ198": 3270,
      "Ġautom": 3271,
      "hing": 3272,
      "umb": 3273,
      "Ġinstall": 3274,
      "Ġfarm": 3275,
      "Ġthus": 3276,
      "Ġadditional": 3277,
      "Ġsleep": 3278,
      "36": 3279,
      "ĠReg": 3280,
      "AN": 3281,
      "Ġefforts": 3282,
      "ĠAust": 3283,
      "Step": 3284,
      "Ġrules": 3285,
      "Ġsn": 3286,
      "Ġgave": 3287,
      "gebra": 3288,
      "haps": 3289,
      "oday": 3290,
      "ccording": 3291,
      "Ġviol": 3292,
      "Ġaspects": 3293,
      "Ġ21": 3294,
      "inct": 3295,
      "ferences": 3296,
      "Ġjourney": 3297,
      "Ġincludes": 3298,
      "ĠPart": 3299,
      "ocks": 3300,
      "Ġanything": 3301,
      "Ġachieve": 3302,
      "iece": 3303,
      "Ġcry": 3304,
      "ĠDep": 3305,
      "Ġservice": 3306,
      "On": 3307,
      "Ġpublished": 3308,
      "enge": 3309,
      "Ġnight": 3310,
      "Ġmag": 3311,
      "Ġask": 3312,
      "Ġextra": 3313,
      "ustr": 3314,
      "ister": 3315,
      "Ġir": 3316,
      "ding": 3317,
      "lor": 3318,
      "Ġknew": 3319,
      "Ġdigital": 3320,
      "Ġfigure": 3321,
      "Ġspect": 3322,
      "Ġeasily": 3323,
      "da": 3324,
      "ĠAg": 3325,
      "ournal": 3326,
      "Ġtheore": 3327,
      "Ġful": 3328,
      "Ġsil": 3329,
      "Ġpowerful": 3330,
      "Ġearl": 3331,
      "Ġversion": 3332,
      "Ġfair": 3333,
      "duc": 3334,
      "ĠSystem": 3335,
      "irection": 3336,
      "75": 3337,
      "iar": 3338,
      "ĠHere": 3339,
      "Ġapplication": 3340,
      "Ġcontains": 3341,
      "rs": 3342,
      "tical": 3343,
      "avig": 3344,
      "Ġkids": 3345,
      "book": 3346,
      "ĠPar": 3347,
      "Ġord": 3348,
      "Ġvariable": 3349,
      "90": 3350,
      "apan": 3351,
      "Ġtried": 3352,
      "Ġsafety": 3353,
      "Ġmulti": 3354,
      "Ġindustry": 3355,
      "Ġdaily": 3356,
      "ighb": 3357,
      "Ġhands": 3358,
      "ĠYork": 3359,
      "ĠAug": 3360,
      "Ġconcent": 3361,
      "He": 3362,
      "cell": 3363,
      "Ġdiverse": 3364,
      "Ġhumans": 3365,
      "fs": 3366,
      "iring": 3367,
      "ellow": 3368,
      "Ġcover": 3369,
      "}_{": 3370,
      "Ġmental": 3371,
      "Ġattempt": 3372,
      "Ġinteresting": 3373,
      "Ġzero": 3374,
      "Ġdepend": 3375,
      "Ġstru": 3376,
      "Ġcompan": 3377,
      "aly": 3378,
      "Ġsurv": 3379,
      "Ġvariables": 3380,
      "ĠState": 3381,
      "32": 3382,
      "amin": 3383,
      "co": 3384,
      "Ġexcited": 3385,
      "inks": 3386,
      "Ġli": 3387,
      "Ġfru": 3388,
      "Ġcollabor": 3389,
      "Ġbott": 3390,
      "Ġelectric": 3391,
      "Ġpromot": 3392,
      "Ġcou": 3393,
      "Ġprep": 3394,
      "Ġcarbon": 3395,
      "Ġrelationships": 3396,
      "Ġmention": 3397,
      "ĠSch": 3398,
      "anger": 3399,
      "Ġsmo": 3400,
      "Ġmovement": 3401,
      "Ġimages": 3402,
      "Ġwebs": 3403,
      "Ġgrowing": 3404,
      "Ġproperty": 3405,
      "zz": 3406,
      "Ġfem": 3407,
      "Ġshared": 3408,
      "ying": 3409,
      "idge": 3410,
      "Ġdeveloping": 3411,
      "Ġwrong": 3412,
      "Ġvisit": 3413,
      "Ġconvers": 3414,
      "Ġexpression": 3415,
      "Ġrout": 3416,
      "Ġund": 3417,
      "Ġwild": 3418,
      "Ġfat": 3419,
      "100": 3420,
      "ifically": 3421,
      "Ġdirectly": 3422,
      "Ġlif": 3423,
      "Ġstructures": 3424,
      "Ġincorpor": 3425,
      "hens": 3426,
      "Ġwhose": 3427,
      "ĠEvery": 3428,
      "ban": 3429,
      "Ġsample": 3430,
      "osing": 3431,
      "Ġsect": 3432,
      "Ġdecre": 3433,
      "Ġsurpr": 3434,
      "oly": 3435,
      "alle": 3436,
      "38": 3437,
      "unction": 3438,
      "At": 3439,
      "Ġvo": 3440,
      "ĠChapter": 3441,
      "Ġerror": 3442,
      "ino": 3443,
      "Ġsoil": 3444,
      "Ġprobably": 3445,
      "Ġremains": 3446,
      "Ġsoftware": 3447,
      "Ġreact": 3448,
      "ension": 3449,
      "ilos": 3450,
      "Ġinvolves": 3451,
      "Ġinform": 3452,
      "Ġscientists": 3453,
      "Ġrat": 3454,
      "Ġpolicy": 3455,
      "ĠCanad": 3456,
      "Ġwood": 3457,
      "Ġeyes": 3458,
      "Ġdimens": 3459,
      "And": 3460,
      "Ġpair": 3461,
      "AC": 3462,
      "Ġsix": 3463,
      "Ġthreat": 3464,
      "ĠRem": 3465,
      "ancing": 3466,
      "Ġ\\\\": 3467,
      "',": 3468,
      "rew": 3469,
      "Ġchoose": 3470,
      "oming": 3471,
      "Ġplayed": 3472,
      "Ġprobability": 3473,
      "osition": 3474,
      "Ġ2010": 3475,
      "ulate": 3476,
      "Ġdiet": 3477,
      "Ġprimary": 3478,
      "Ġcoord": 3479,
      "Ġmachine": 3480,
      "Ġhope": 3481,
      "ĠFirst": 3482,
      "ription": 3483,
      "Ġsquare": 3484,
      "oes": 3485,
      "ony": 3486,
      "Ġrob": 3487,
      "Ġpi": 3488,
      "ĠMany": 3489,
      "64": 3490,
      "ĠArt": 3491,
      "ĠTrans": 3492,
      "ĠPhys": 3493,
      "ades": 3494,
      "Ġagree": 3495,
      "artment": 3496,
      "minist": 3497,
      "Ġprior": 3498,
      "78": 3499,
      "Ġwall": 3500,
      "ĠJew": 3501,
      "Ġproviding": 3502,
      "ĠInst": 3503,
      "eter": 3504,
      "Ġreach": 3505,
      "acters": 3506,
      "Ġinfluence": 3507,
      "Ġproced": 3508,
      "itable": 3509,
      "Ġlived": 3510,
      "ounds": 3511,
      "Ġearth": 3512,
      "Ġult": 3513,
      "Ġcaused": 3514,
      "Ġschools": 3515,
      "Ġenter": 3516,
      "Ġadvent": 3517,
      "Ġdark": 3518,
      "Ġformula": 3519,
      "Ġfinal": 3520,
      "ï¿": 3521,
      "IC": 3522,
      "Ġtax": 3523,
      "mar": 3524,
      "Ġ22": 3525,
      "Ġtransport": 3526,
      "xi": 3527,
      "Ġalgorithm": 3528,
      "Ġblock": 3529,
      "rial": 3530,
      "ĠWell": 3531,
      "Ġvideo": 3532,
      "ios": 3533,
      "know": 3534,
      "ufact": 3535,
      "ï¿½": 3536,
      "Ġlack": 3537,
      "Ġleaders": 3538,
      "head": 3539,
      "Ġtrees": 3540,
      "Ġmemory": 3541,
      "estern": 3542,
      "phas": 3543,
      "lege": 3544,
      "ĠJapan": 3545,
      "works": 3546,
      "Ġ40": 3547,
      "ded": 3548,
      "Ġinj": 3549,
      "Lily": 3550,
      "ĠOur": 3551,
      "Ġfit": 3552,
      "Ġdiagn": 3553,
      "AL": 3554,
      "load": 3555,
      "mathbf": 3556,
      "Ġappropriate": 3557,
      "Ġtown": 3558,
      "atform": 3559,
      "odies": 3560,
      "Ġidentity": 3561,
      "Ġneighb": 3562,
      "ĠOver": 3563,
      "Ġsecurity": 3564,
      "Ġfinancial": 3565,
      "ecause": 3566,
      "ricult": 3567,
      "Ġsmaller": 3568,
      "65": 3569,
      ")=": 3570,
      "irm": 3571,
      "ĠMax": 3572,
      "Ġfamilies": 3573,
      "uff": 3574,
      "Ġguid": 3575,
      "ĠOct": 3576,
      "gar": 3577,
      "Ġancient": 3578,
      "oe": 3579,
      "Ġefficient": 3580,
      "Re": 3581,
      "Ġcard": 3582,
      "itect": 3583,
      "_{\\": 3584,
      "ĠMy": 3585,
      "Ġ2012": 3586,
      "Ġast": 3587,
      "ctors": 3588,
      "Ġdifferences": 3589,
      "Ġtherefore": 3590,
      "ĠAc": 3591,
      "vention": 3592,
      "Ġoffers": 3593,
      "Ġscientific": 3594,
      "Ġcapac": 3595,
      "Ġhot": 3596,
      "Ġrates": 3597,
      "Ġinstit": 3598,
      "ĠEach": 3599,
      "].": 3600,
      "room": 3601,
      "term": 3602,
      "ĠTechn": 3603,
      "ĠCO": 3604,
      "Ġactive": 3605,
      "Ġcit": 3606,
      "Ġperm": 3607,
      "Ġcauses": 3608,
      "Ġsignificantly": 3609,
      "ha": 3610,
      "Â·Â·": 3611,
      "Ġmath": 3612,
      "Ġgenerally": 3613,
      "Ġarri": 3614,
      "Ġanimal": 3615,
      "Ġelectr": 3616,
      "Ġheld": 3617,
      "stitute": 3618,
      "used": 3619,
      "Ġsolve": 3620,
      ":**": 3621,
      "mathbb": 3622,
      "ĠGo": 3623,
      "Ġregarding": 3624,
      "Ġpatient": 3625,
      "Ġrunning": 3626,
      "iber": 3627,
      "}{\\": 3628,
      "Ġload": 3629,
      "Ġincluded": 3630,
      "Ġhyp": 3631,
      "Ġdirection": 3632,
      "IT": 3633,
      "Ġextreme": 3634,
      "Ġcamp": 3635,
      "Ġexcept": 3636,
      "istry": 3637,
      "Ġcontinued": 3638,
      "Ġroot": 3639,
      "sum": 3640,
      "Ġcommand": 3641,
      "48": 3642,
      "Ġbond": 3643,
      "abilities": 3644,
      "Ġminutes": 3645,
      "wo": 3646,
      "}^": 3647,
      "Ġthird": 3648,
      "alpha": 3649,
      "asons": 3650,
      "EN": 3651,
      "rogen": 3652,
      "rag": 3653,
      "ĠCour": 3654,
      "ĠBritish": 3655,
      "Ġspirit": 3656,
      "igned": 3657,
      "Ġdamage": 3658,
      "oration": 3659,
      "urb": 3660,
      "05": 3661,
      "eds": 3662,
      "elcome": 3663,
      "resh": 3664,
      "ĠMon": 3665,
      "times": 3666,
      "Ġmap": 3667,
      "iers": 3668,
      "Ġplaces": 3669,
      "Ġrich": 3670,
      "Ġusers": 3671,
      "Ġcontribute": 3672,
      "Ġmis": 3673,
      "sec": 3674,
      "ancy": 3675,
      "Ġweak": 3676,
      "Ġprinciples": 3677,
      "Ġlost": 3678,
      "ĠJournal": 3679,
      "37": 3680,
      "www": 3681,
      "Ġstop": 3682,
      "Ġconcepts": 3683,
      "igma": 3684,
      "Ġcharacters": 3685,
      "encies": 3686,
      "Ġrot": 3687,
      "Ġfront": 3688,
      "Ġvariety": 3689,
      "Ġestablish": 3690,
      "Ġdescribed": 3691,
      "rote": 3692,
      "Ġpoll": 3693,
      "eper": 3694,
      "Ġoptions": 3695,
      "Ġscale": 3696,
      "ĠEd": 3697,
      "care": 3698,
      "see": 3699,
      "Ġnovel": 3700,
      "ĠSchool": 3701,
      "ĠGra": 3702,
      "ED": 3703,
      "Ġimmed": 3704,
      "Ġconflic": 3705,
      "Ġdiscover": 3706,
      "Ġapply": 3707,
      "abet": 3708,
      "Ġtou": 3709,
      "Ġfascinating": 3710,
      "fl": 3711,
      "Ġbill": 3712,
      "Ġgoal": 3713,
      "ĠApr": 3714,
      "Ġproduced": 3715,
      "Ġdevices": 3716,
      "Ġdisplay": 3717,
      "ĠDec": 3718,
      "Ġ2011": 3719,
      "Ġveget": 3720,
      "Ġcele": 3721,
      "ana": 3722,
      "Ġstrength": 3723,
      "Ġbalance": 3724,
      "Ġ@": 3725,
      "Ġresponsible": 3726,
      "Ġimmediate": 3727,
      "Ġwatch": 3728,
      "Ġfoot": 3729,
      "Ġupd": 3730,
      "ditionally": 3731,
      "Ġrule": 3732,
      "Ġsituation": 3733,
      "Ġsets": 3734,
      "Ġtypically": 3735,
      "Ġoptim": 3736,
      "Ġfields": 3737,
      "Ġscen": 3738,
      "Ġadop": 3739,
      "Ġstore": 3740,
      "Ġapplied": 3741,
      "eces": 3742,
      "Ġconnections": 3743,
      "ĠMin": 3744,
      "ederal": 3745,
      "Ġtrust": 3746,
      "Ġinternational": 3747,
      "ests": 3748,
      "Ġestablished": 3749,
      ",\\": 3750,
      "ĠFurther": 3751,
      "Ġcenter": 3752,
      "Ġcouldn": 3753,
      "Ġpiece": 3754,
      "Ġnucle": 3755,
      "Ġfeeling": 3756,
      "Ġexpected": 3757,
      "raw": 3758,
      "uild": 3759,
      "ĠInter": 3760,
      "Ġlimited": 3761,
      "Ġsea": 3762,
      "ĠSince": 3763,
      "Ġcolum": 3764,
      "Ġpoor": 3765,
      "Ġshowed": 3766,
      "Ġstrugg": 3767,
      "Ġsuccessful": 3768,
      "roup": 3769,
      "Ġcentral": 3770,
      "Ġfeet": 3771,
      "stract": 3772,
      "Ġfollowed": 3773,
      "Ġdetails": 3774,
      "Ġreported": 3775,
      "Ġmother": 3776,
      "Ġtrack": 3777,
      "Ġcontemporary": 3778,
      "off": 3779,
      "44": 3780,
      "rete": 3781,
      "isf": 3782,
      "Ġsus": 3783,
      "Ġdemand": 3784,
      "ocol": 3785,
      "iced": 3786,
      "illing": 3787,
      "Ġwon": 3788,
      "Ġreligious": 3789,
      "rices": 3790,
      "cean": 3791,
      "ĠChina": 3792,
      "Ġhost": 3793,
      "Ġparameters": 3794,
      "rench": 3795,
      "uration": 3796,
      "Ġliterature": 3797,
      "Ġconsequ": 3798,
      "Ġprojects": 3799,
      "point": 3800,
      "itch": 3801,
      "rie": 3802,
      "Ġhar": 3803,
      "Ġhom": 3804,
      "Ġspeak": 3805,
      "Â°": 3806,
      "attle": 3807,
      "Ġgoes": 3808,
      "ĠAlthough": 3809,
      "ued": 3810,
      "Ġeye": 3811,
      "Ġice": 3812,
      "ĠMath": 3813,
      "Ġforces": 3814,
      "ĠSm": 3815,
      "Ġhttp": 3816,
      "Ġep": 3817,
      "Ġnavig": 3818,
      "Ġacid": 3819,
      "Ġcosts": 3820,
      "Ġmeasures": 3821,
      "Ġwave": 3822,
      "Ġgarden": 3823,
      "Ġforward": 3824,
      "Ġmanufact": 3825,
      "ĠUnderstanding": 3826,
      "omp": 3827,
      "Ġearlier": 3828,
      "iff": 3829,
      "Ġdetect": 3830,
      "Ġpicture": 3831,
      "nds": 3832,
      "denly": 3833,
      "ST": 3834,
      "cks": 3835,
      "Ġplot": 3836,
      "Ġemphas": 3837,
      "ĠII": 3838,
      "uries": 3839,
      "Ġcivil": 3840,
      "Ġ2013": 3841,
      "ĠChar": 3842,
      "ille": 3843,
      "Ġbrought": 3844,
      "ials": 3845,
      "Ġfilled": 3846,
      "Ġchallenge": 3847,
      "Ġnote": 3848,
      "Ġswe": 3849,
      "Ġbacter": 3850,
      "ĠWill": 3851,
      "ĠOther": 3852,
      "ĠJu": 3853,
      "Ġcarry": 3854,
      "Ġsetting": 3855,
      "Ġcareful": 3856,
      "Ġserious": 3857,
      "ĠLear": 3858,
      "ipp": 3859,
      "Ġthous": 3860,
      "Ġblue": 3861,
      "place": 3862,
      "Ġrock": 3863,
      "log": 3864,
      "inated": 3865,
      "Ġbab": 3866,
      "}(": 3867,
      "Ġexperien": 3868,
      "Ġcompanies": 3869,
      "IV": 3870,
      "Ġdegree": 3871,
      "Ġexercise": 3872,
      "ternal": 3873,
      "def": 3874,
      "Ġadvant": 3875,
      "Ġsequence": 3876,
      "ulated": 3877,
      "Ġimagine": 3878,
      "55": 3879,
      "Ġfrequency": 3880,
      "Ġexec": 3881,
      "Ġ2009": 3882,
      "ellig": 3883,
      "elta": 3884,
      "Ġdiscovered": 3885,
      "Ġprice": 3886,
      "ĠIndia": 3887,
      "known": 3888,
      "aught": 3889,
      "Ġnothing": 3890,
      "ares": 3891,
      "Ġnice": 3892,
      "Ġ{\\": 3893,
      "Ġinsights": 3894,
      "Ġfinding": 3895,
      "Ġrapid": 3896,
      "Ġdefinition": 3897,
      "Ġaccur": 3898,
      "ĠGl": 3899,
      "Cl": 3900,
      "Ġresid": 3901,
      "**:": 3902,
      "Ġbasis": 3903,
      "Ġimag": 3904,
      "Ġing": 3905,
      "Ġcontroll": 3906,
      "Here": 3907,
      "Ġroad": 3908,
      "ĠUse": 3909,
      "199": 3910,
      "Ġgames": 3911,
      "Ġfollows": 3912,
      "Ġteachers": 3913,
      "rees": 3914,
      "ĠEuropean": 3915,
      "Ġbehavi": 3916,
      "ĠThus": 3917,
      "Ġdivid": 3918,
      "wide": 3919,
      "Ġallowing": 3920,
      "Ġobserved": 3921,
      "ky": 3922,
      "otic": 3923,
      "====": 3924,
      "Ġappe": 3925,
      "Ġexperiment": 3926,
      "onic": 3927,
      "Ġpretty": 3928,
      "Ġfeature": 3929,
      "change": 3930,
      "ĠFeb": 3931,
      "Be": 3932,
      "Ġcam": 3933,
      "Ġdevice": 3934,
      "estion": 3935,
      "Ġfoods": 3936,
      "Ġtransm": 3937,
      "word": 3938,
      "Ġtend": 3939,
      "Ġactions": 3940,
      "ingu": 3941,
      "ĠAre": 3942,
      "Ġsem": 3943,
      "Ġoperations": 3944,
      "pre": 3945,
      "Ġlaws": 3946,
      "Ġpurpose": 3947,
      "Ġlandsc": 3948,
      "Ġfight": 3949,
      "Ġlabor": 3950,
      "Ġrelevant": 3951,
      "enn": 3952,
      "do": 3953,
      "Ġwat": 3954,
      "Ġspaces": 3955,
      "lands": 3956,
      "Ġtests": 3957,
      "ĠChristian": 3958,
      "Ġhighly": 3959,
      "Ġtoys": 3960,
      "Ġmoving": 3961,
      "nam": 3962,
      "ĠKing": 3963,
      "icate": 3964,
      "Ġliked": 3965,
      "resents": 3966,
      "Ġplatform": 3967,
      "Ġ28": 3968,
      "dy": 3969,
      "Ġleaves": 3970,
      "cdot": 3971,
      "ĠAustral": 3972,
      "ĠLa": 3973,
      "Ġworked": 3974,
      "Int": 3975,
      "inite": 3976,
      "Ġdry": 3977,
      "Ġbackground": 3978,
      "-\\": 3979,
      "arian": 3980,
      "Ġsolar": 3981,
      "Ġ2008": 3982,
      "ĠEven": 3983,
      "ifying": 3984,
      "Ġalthough": 3985,
      "ĠEl": 3986,
      "Ġcore": 3987,
      "Ġamaz": 3988,
      "Ġexpand": 3989,
      "omic": 3990,
      "Ġcompre": 3991,
      "Ġvirt": 3992,
      "01": 3993,
      "Ġlocation": 3994,
      "Ġmount": 3995,
      "osure": 3996,
      "ĠDis": 3997,
      "Ġfiles": 3998,
      "Ġwrote": 3999,
      "Ġsites": 4000,
      "Ġwaste": 4001,
      "umber": 4002,
      "life": 4003,
      "Ġcred": 4004,
      "ometry": 4005,
      "Ġded": 4006,
      "AM": 4007,
      "othes": 4008,
      "asks": 4009,
      "Ġalternative": 4010,
      "Ġhimself": 4011,
      "Ġdistinct": 4012,
      "son": 4013,
      "Ġnarr": 4014,
      "och": 4015,
      "rum": 4016,
      "Ġcoming": 4017,
      "Ġconnection": 4018,
      "mod": 4019,
      "ilit": 4020,
      "Ġanti": 4021,
      "Ġwonder": 4022,
      "Ġreference": 4023,
      "sect": 4024,
      "Ġmut": 4025,
      "Ġlooks": 4026,
      "ought": 4027,
      "49": 4028,
      "Ġpan": 4029,
      "Ġsupply": 4030,
      "Ġtesting": 4031,
      "edia": 4032,
      "ii": 4033,
      "Ġitems": 4034,
      "bda": 4035,
      "That": 4036,
      "Ġmaximum": 4037,
      "Ġsold": 4038,
      "urrent": 4039,
      "uary": 4040,
      "Ġlegal": 4041,
      "ĠTheir": 4042,
      "name": 4043,
      "Ġconnected": 4044,
      "Ġdeeper": 4045,
      "Ġexisting": 4046,
      "ĠPres": 4047,
      "ĠKe": 4048,
      "Ġstarting": 4049,
      "orders": 4050,
      "Ġnoise": 4051,
      "Ġfundam": 4052,
      "Ġcompar": 4053,
      "Ġillustr": 4054,
      "Ġsignal": 4055,
      "ĠEduc": 4056,
      "Ġrepresents": 4057,
      "Ġteaching": 4058,
      "Ġrain": 4059,
      "Ġphen": 4060,
      "mosp": 4061,
      "ham": 4062,
      "Ġjud": 4063,
      "Ġindependent": 4064,
      "gram": 4065,
      "Ġserve": 4066,
      "ĠOnce": 4067,
      "Ġrespond": 4068,
      "ran": 4069,
      "Ġcapital": 4070,
      "Ġsharing": 4071,
      "Ġreduced": 4072,
      "Ġresulting": 4073,
      "Ġfa": 4074,
      "Ġhon": 4075,
      "Ġapproaches": 4076,
      "Ġsurrounding": 4077,
      "Ġleave": 4078,
      "Ġconstruction": 4079,
      "ĠCommun": 4080,
      "Ġinterpret": 4081,
      ")$$": 4082,
      "ĠÃ": 4083,
      "66": 4084,
      "igenous": 4085,
      "Ġcand": 4086,
      "Ġlots": 4087,
      "Ġorganizations": 4088,
      "iable": 4089,
      "Ġvolume": 4090,
      "Ġbirth": 4091,
      "theta": 4092,
      "Ġsatisf": 4093,
      "Ġarchitect": 4094,
      "orry": 4095,
      "Ġminim": 4096,
      "Ġconcerns": 4097,
      "Ġax": 4098,
      "water": 4099,
      "ĠDef": 4100,
      "Ġphilos": 4101,
      "Ġstage": 4102,
      "ĠDevelop": 4103,
      "omy": 4104,
      "Ġpow": 4105,
      "Ġalone": 4106,
      "ä¸": 4107,
      "Ġnumerous": 4108,
      "ĠToday": 4109,
      "Ġplanet": 4110,
      "ipl": 4111,
      "uman": 4112,
      "Ġready": 4113,
      "Ġ2017": 4114,
      "unch": 4115,
      "ipment": 4116,
      "Ġanyone": 4117,
      "Ġconstit": 4118,
      "Ġteach": 4119,
      "Ġveh": 4120,
      "ken": 4121,
      "47": 4122,
      "ager": 4123,
      "alse": 4124,
      "Ġchoice": 4125,
      "ags": 4126,
      "ief": 4127,
      "Ġbeginning": 4128,
      "Ġdecisions": 4129,
      "Ġtiss": 4130,
      "ĠUsing": 4131,
      "Ġtrade": 4132,
      "orph": 4133,
      "Ġ2015": 4134,
      "Sc": 4135,
      "ros": 4136,
      "Ġmilitary": 4137,
      "vert": 4138,
      "Ġequival": 4139,
      "Ġrepe": 4140,
      "Ġ2016": 4141,
      "Te": 4142,
      "ĠSol": 4143,
      "ĠGree": 4144,
      "Ġprotein": 4145,
      "Ġtransfer": 4146,
      "plications": 4147,
      "Ġevolution": 4148,
      "Ġdefine": 4149,
      "Ġhappens": 4150,
      "Ġfavorite": 4151,
      "Ġdesp": 4152,
      "Ġcompletely": 4153,
      "rain": 4154,
      "Ġutil": 4155,
      "Ġ26": 4156,
      "idth": 4157,
      "Ġscared": 4158,
      "Ġauthors": 4159,
      "ĠMost": 4160,
      "Ġonto": 4161,
      "Ġadjust": 4162,
      "ube": 4163,
      "Ġprotection": 4164,
      "Ġpieces": 4165,
      "ĠExpl": 4166,
      "Ġdad": 4167,
      "Ġdanger": 4168,
      "oo": 4169,
      "Un": 4170,
      "ibly": 4171,
      "Ġfear": 4172,
      "issions": 4173,
      "ĠOf": 4174,
      "ĠSee": 4175,
      "ĠInternational": 4176,
      "Ġcelebr": 4177,
      "Ġsch": 4178,
      "overn": 4179,
      "Ġclin": 4180,
      "Ġweb": 4181,
      "EC": 4182,
      "Ġeffectively": 4183,
      "31": 4184,
      "comes": 4185,
      "Ġallowed": 4186,
      "array": 4187,
      "Ġphase": 4188,
      "Ġteacher": 4189,
      "year": 4190,
      "Ġ27": 4191,
      "Ġlayer": 4192,
      "ĠRuss": 4193,
      "Ġseason": 4194,
      "Ġtechnologies": 4195,
      "ĠMathemat": 4196,
      "Ġvalid": 4197,
      "Ġproof": 4198,
      "ste": 4199,
      "cles": 4200,
      "With": 4201,
      "Ġdecl": 4202,
      "After": 4203,
      "Ġdive": 4204,
      "Ġhelped": 4205,
      "Ġcitiz": 4206,
      "Ġincl": 4207,
      "Ġactual": 4208,
      "Ġcolon": 4209,
      "Ġcollection": 4210,
      "No": 4211,
      "allel": 4212,
      "ĠAdditionally": 4213,
      "Ġfully": 4214,
      "aid": 4215,
      "DF": 4216,
      "Ġspecifically": 4217,
      "gy": 4218,
      "Ġstar": 4219,
      "Ġinvolve": 4220,
      "Ġfig": 4221,
      "Ġdiag": 4222,
      "Ġ${\\": 4223,
      "46": 4224,
      "undred": 4225,
      "ĠMus": 4226,
      "vest": 4227,
      "iling": 4228,
      "ĠRel": 4229,
      "Ġunits": 4230,
      "Ġcold": 4231,
      "Ġgets": 4232,
      "Ġrow": 4233,
      "ĠVal": 4234,
      "{{": 4235,
      "ashing": 4236,
      "88": 4237,
      "ï¼": 4238,
      "Ġsimpl": 4239,
      "ĠFrench": 4240,
      "igr": 4241,
      "ĠSupp": 4242,
      "Ġ2014": 4243,
      "Ġcomfort": 4244,
      "Ġsociet": 4245,
      "Ġnation": 4246,
      "ffect": 4247,
      "ĠCount": 4248,
      "ĠHar": 4249,
      "Ġsky": 4250,
      "Ġnews": 4251,
      "Ġbirds": 4252,
      "Ġheight": 4253,
      "Ġdensity": 4254,
      "ĠRed": 4255,
      "Ġmiddle": 4256,
      "Ġrefers": 4257,
      "Ġoption": 4258,
      "Ġcolors": 4259,
      "bre": 4260,
      "ĠAfrican": 4261,
      "Imagine": 4262,
      "Ġdivers": 4263,
      "Ġbed": 4264,
      "Ġtast": 4265,
      "Ġbul": 4266,
      "Ġprivate": 4267,
      "hest": 4268,
      "Ġperhaps": 4269,
      "Ġsolid": 4270,
      "ĠDisc": 4271,
      "Ġ60": 4272,
      "elines": 4273,
      "Ġgender": 4274,
      "ĠJes": 4275,
      "ĠAlso": 4276,
      "Ġstring": 4277,
      "ĠSpec": 4278,
      "key": 4279,
      "Ġadults": 4280,
      "Ġdeal": 4281,
      "ET": 4282,
      "Ġeasier": 4283,
      "Ġregions": 4284,
      "Ġdrink": 4285,
      "que": 4286,
      "ogle": 4287,
      "uses": 4288,
      "zing": 4289,
      "Ġgoals": 4290,
      "Ġindex": 4291,
      "Ġconclusion": 4292,
      "Ġdiseases": 4293,
      "Ġdoll": 4294,
      "Ġfixed": 4295,
      "Ġ74": 4296,
      "Ġplease": 4297,
      "Ġcommit": 4298,
      "ĠInc": 4299,
      "Ġeating": 4300,
      "Ġreceived": 4301,
      "ĠIndian": 4302,
      "ama": 4303,
      "ĠInstitute": 4304,
      "Ġarray": 4305,
      "amma": 4306,
      "useum": 4307,
      "Ġmentioned": 4308,
      "Ġwebsite": 4309,
      "Ġprofessional": 4310,
      "Ġreasons": 4311,
      "Ġreaction": 4312,
      "mu": 4313,
      "ogen": 4314,
      "Ġtopics": 4315,
      "Ġresistance": 4316,
      "ĠJack": 4317,
      "ĠPress": 4318,
      "Ġmessage": 4319,
      "ĠAnt": 4320,
      "Ġfresh": 4321,
      "Ġguide": 4322,
      "Is": 4323,
      "Ġargument": 4324,
      "Ġcloser": 4325,
      "Ġbelong": 4326,
      "Ġsmooth": 4327,
      "Ġtechnique": 4328,
      "EM": 4329,
      "Ġeffort": 4330,
      "ĠHistory": 4331,
      "ĠCenter": 4332,
      "Ġtoy": 4333,
      "Ġlocated": 4334,
      "Ġhelping": 4335,
      "ĠDuring": 4336,
      "Ġegg": 4337,
      "Ġdoctor": 4338,
      "ĠBar": 4339,
      "Ġbenefit": 4340,
      "Ġquantum": 4341,
      "Ġsevere": 4342,
      "ĠMoreover": 4343,
      "Ġtoward": 4344,
      "Ġgradu": 4345,
      "Ad": 4346,
      "Ġnames": 4347,
      "ocal": 4348,
      "Ġspl": 4349,
      "Ġworth": 4350,
      "Ġhabit": 4351,
      "roud": 4352,
      "Ġadminist": 4353,
      "Ġcopy": 4354,
      "Ġangle": 4355,
      "nom": 4356,
      "anging": 4357,
      "Ġcounter": 4358,
      "These": 4359,
      "Ġkept": 4360,
      "PS": 4361,
      "Ġpromote": 4362,
      "idden": 4363,
      "ĠDav": 4364,
      "rition": 4365,
      "Ġrecently": 4366,
      "atur": 4367,
      "Ġgiving": 4368,
      "77": 4369,
      "ether": 4370,
      "uk": 4371,
      "ormal": 4372,
      "Ġ%": 4373,
      "Ġpu": 4374,
      "Ġpp": 4375,
      "Ġhappen": 4376,
      "print": 4377,
      "Ġpolicies": 4378,
      "Ġtherapy": 4379,
      "Ġpeace": 4380,
      "Ġpen": 4381,
      "Ġshall": 4382,
      "Ġbuy": 4383,
      "Ġplanning": 4384,
      "with": 4385,
      "Ġdiscussion": 4386,
      "beta": 4387,
      "cular": 4388,
      "Ġevol": 4389,
      "ĠChe": 4390,
      "Ġpresented": 4391,
      "Ġfuel": 4392,
      "Ġreceive": 4393,
      "ĠâĢ¦": 4394,
      "Ġagricult": 4395,
      "Ġcalculate": 4396,
      "aled": 4397,
      "Sh": 4398,
      ")^": 4399,
      "Ph": 4400,
      "Ġchanging": 4401,
      "ĠMark": 4402,
      "ĠData": 4403,
      "Ġtail": 4404,
      "ĠAccording": 4405,
      "ightly": 4406,
      "aul": 4407,
      "ĠWhy": 4408,
      "Ġweeks": 4409,
      "Ġatmosp": 4410,
      "uro": 4411,
      "uit": 4412,
      "ĠSub": 4413,
      "range": 4414,
      "Ġhappened": 4415,
      "pen": 4416,
      "ĠEqu": 4417,
      "alysis": 4418,
      "Ġturned": 4419,
      "cont": 4420,
      "Ġbear": 4421,
      "ĠĠĠĠĠĠĠĠĠĠĠĠĠĠĠĠ": 4422,
      "ĠFurthermore": 4423,
      "Ġstyle": 4424,
      "ĠTherefore": 4425,
      "ĠSw": 4426,
      "edom": 4427,
      "OS": 4428,
      "athy": 4429,
      "Ġsynt": 4430,
      "Ġ2007": 4431,
      "ĠJune": 4432,
      "Ġbodies": 4433,
      "Ġcarefully": 4434,
      "inese": 4435,
      "Ġstream": 4436,
      "ĠClass": 4437,
      "oper": 4438,
      "Ġacad": 4439,
      "Ġresource": 4440,
      "iforn": 4441,
      "cast": 4442,
      "Ġten": 4443,
      "Ġvary": 4444,
      "ĠPost": 4445,
      "Ġrare": 4446,
      "Ġmotion": 4447,
      "df": 4448,
      "Ġacqu": 4449,
      "force": 4450,
      "Ġframew": 4451,
      "Ġqual": 4452,
      "Ġlargest": 4453,
      "Ġstatement": 4454,
      "Ġ29": 4455,
      "abetes": 4456,
      "ystem": 4457,
      "Ġpassed": 4458,
      "Ġincreases": 4459,
      "going": 4460,
      "Ġlibrary": 4461,
      "zy": 4462,
      "espite": 4463,
      "Ġcharge": 4464,
      "79": 4465,
      "Ġpul": 4466,
      "69": 4467,
      "Ġ2018": 4468,
      "iant": 4469,
      "ĠSur": 4470,
      "Ġnetworks": 4471,
      "sin": 4472,
      "Ġoutcomes": 4473,
      "ĠDes": 4474,
      "From": 4475,
      "Ġtim": 4476,
      "Ġlat": 4477,
      "ĠBo": 4478,
      "rief": 4479,
      "ĠRet": 4480,
      "Ġoccurs": 4481,
      "which": 4482,
      "ĠBi": 4483,
      "Ġq": 4484,
      "Ġvit": 4485,
      "Ġtask": 4486,
      "Ġattract": 4487,
      "Ġworkers": 4488,
      "Ġbreath": 4489,
      "Ġopportunity": 4490,
      "+\\": 4491,
      "Ġmid": 4492,
      "Ġhundred": 4493,
      "ev": 4494,
      "Ġvacc": 4495,
      "Ġequipment": 4496,
      "Ġchanged": 4497,
      "While": 4498,
      "Ġcapacity": 4499,
      "Ġpet": 4500,
      "Ġsave": 4501,
      "ĠÂłĠÂł": 4502,
      "ĠMarch": 4503,
      "ĠFl": 4504,
      "Ġparticles": 4505,
      "Ġabsor": 4506,
      "Ġratio": 4507,
      "rupt": 4508,
      "ĠGerman": 4509,
      "Qu": 4510,
      "omb": 4511,
      "Ġinternal": 4512,
      "âĢĿ.": 4513,
      "olute": 4514,
      "Ġexhib": 4515,
      "Ġcurrently": 4516,
      "Ġcomponent": 4517,
      "Ġproud": 4518,
      "ĠLaw": 4519,
      "sub": 4520,
      "Ġfundamental": 4521,
      "Ġalgebra": 4522,
      "68": 4523,
      "Ġformed": 4524,
      "Ġtal": 4525,
      "Ġworry": 4526,
      "ructure": 4527,
      "comp": 4528,
      "Ġparameter": 4529,
      "Ġadm": 4530,
      "Ġsand": 4531,
      "Sp": 4532,
      "ĠHigh": 4533,
      "Ġmaybe": 4534,
      "Ġcos": 4535,
      "Ġolder": 4536,
      "ifornia": 4537,
      "Ġ^": 4538,
      "Ġtherm": 4539,
      "ĠPol": 4540,
      "Ġthoughts": 4541,
      "tes": 4542,
      "ĠIS": 4543,
      "ĠCor": 4544,
      "Ġsugar": 4545,
      "Ġplays": 4546,
      "Ġdate": 4547,
      "Ġjump": 4548,
      "Ġtopic": 4549,
      "}}\\": 4550,
      "Ġrecommend": 4551,
      "ĠVol": 4552,
      "Ġaffected": 4553,
      "Ġlanguages": 4554,
      "Ġvoice": 4555,
      "Ġdepending": 4556,
      "ĠâĢ¢": 4557,
      "gl": 4558,
      "Ġhous": 4559,
      "ĠDepartment": 4560,
      "can": 4561,
      "Ġorganization": 4562,
      "Ġvel": 4563,
      "Ġmob": 4564,
      "Ġadding": 4565,
      "Ġobtained": 4566,
      "era": 4567,
      "Ġseparate": 4568,
      "ĠComput": 4569,
      "Ġinstruct": 4570,
      "ĠAfrica": 4571,
      "Ġensuring": 4572,
      "Ġdream": 4573,
      "Ġlessons": 4574,
      "Ġoperation": 4575,
      "Ġsituations": 4576,
      "Ġmaster": 4577,
      "Ġreality": 4578,
      "Ġcircle": 4579,
      "Ġreaders": 4580,
      "Ġiniti": 4581,
      "Ġadvanced": 4582,
      "Ġrise": 4583,
      "Ġcomment": 4584,
      "Ġdouble": 4585,
      "Ġfamous": 4586,
      "Ġstatus": 4587,
      "Ġpresence": 4588,
      "59": 4589,
      "estic": 4590,
      "Ġwal": 4591,
      "rab": 4592,
      "Ġtrig": 4593,
      "che": 4594,
      "ĠSoci": 4595,
      "Ġstandards": 4596,
      "ĠUnit": 4597,
      "Ġtasks": 4598,
      "Ġgrav": 4599,
      "ĠFind": 4600,
      "Ġhttps": 4601,
      "gn": 4602,
      "inu": 4603,
      "Ġunf": 4604,
      "02": 4605,
      "Ġglass": 4606,
      "Ġeventually": 4607,
      "gged": 4608,
      "Ġclasses": 4609,
      "Ġfeelings": 4610,
      "Ġliqu": 4611,
      "Ġrisks": 4612,
      "Ġmix": 4613,
      "UT": 4614,
      "Ġpurch": 4615,
      "Ġgold": 4616,
      "Ġdespite": 4617,
      "Ġcontinuous": 4618,
      "Ġclosed": 4619,
      "Ġattrib": 4620,
      "Ġvict": 4621,
      "Ġexposure": 4622,
      "inger": 4623,
      "Ġwin": 4624,
      "ocr": 4625,
      "Ġign": 4626,
      "Ġdead": 4627,
      "Ġfinite": 4628,
      "ĊĠĠĠ": 4629,
      "atically": 4630,
      "Ġsounds": 4631,
      "Ġprofession": 4632,
      "Ġprocessing": 4633,
      "Ġrepresentation": 4634,
      "ĠJuly": 4635,
      "oses": 4636,
      "Ġfindings": 4637,
      "Ġsubt": 4638,
      "Ġcultures": 4639,
      "--------------------------------": 4640,
      "reet": 4641,
      "Ġemotional": 4642,
      "ĠSimilar": 4643,
      "ptember": 4644,
      "cil": 4645,
      "celer": 4646,
      "Ġcircum": 4647,
      "ĠPat": 4648,
      "Ġbright": 4649,
      "ĠAugust": 4650,
      "08": 4651,
      "Ġdial": 4652,
      "MS": 4653,
      "Ġphenomen": 4654,
      "Ġnearly": 4655,
      "Ġstrategy": 4656,
      "ĠServ": 4657,
      "Ġplaced": 4658,
      "Ġheavy": 4659,
      "Ġclim": 4660,
      "Ġintellig": 4661,
      "fty": 4662,
      "ĠPython": 4663,
      "raint": 4664,
      "Ġroll": 4665,
      "Ġspot": 4666,
      "Ġsides": 4667,
      "rier": 4668,
      "erson": 4669,
      "Ġcast": 4670,
      "Ġstraight": 4671,
      "Ġmommy": 4672,
      "Ġmetal": 4673,
      "coh": 4674,
      "Ġneut": 4675,
      "Ġhealthcare": 4676,
      "Ġprove": 4677,
      "Ġproposed": 4678,
      "Ġweather": 4679,
      "ĠWest": 4680,
      "Ġinstr": 4681,
      "Ġderiv": 4682,
      "Ġcoe": 4683,
      "mathcal": 4684,
      "Ġchann": 4685,
      "ĠRead": 4686,
      "AP": 4687,
      "ees": 4688,
      "Ġmember": 4689,
      "Ġcontrast": 4690,
      "ĠDi": 4691,
      "Ġwoman": 4692,
      "Ġreducing": 4693,
      "gs": 4694,
      "cious": 4695,
      "Ġvital": 4696,
      "ographic": 4697,
      "ĠĠĠĠĠĠĠ": 4698,
      "rors": 4699,
      "anish": 4700,
      "inates": 4701,
      "rick": 4702,
      "ession": 4703,
      "iveness": 4704,
      "Ġformat": 4705,
      "Ġkn": 4706,
      "Ġpopulations": 4707,
      "unt": 4708,
      "Ġchallenging": 4709,
      "ygen": 4710,
      "ĠJesus": 4711,
      "Ġmist": 4712,
      "67": 4713,
      "AB": 4714,
      "Ġadvance": 4715,
      "ĠGreat": 4716,
      "udd": 4717,
      "Ġfle": 4718,
      "urning": 4719,
      "board": 4720,
      "Ġanswers": 4721,
      "icit": 4722,
      "Ġintroduced": 4723,
      "ĠInstead": 4724,
      "42": 4725,
      "Ġdescribe": 4726,
      "Ġappears": 4727,
      "osen": 4728,
      "Ġgenerate": 4729,
      "plot": 4730,
      "icip": 4731,
      "apers": 4732,
      "Why": 4733,
      "^{-": 4734,
      "Ġtruth": 4735,
      "Ġcorresponding": 4736,
      "ĠCalifornia": 4737,
      "ĠLu": 4738,
      "Ġcomprehens": 4739,
      "ica": 4740,
      "58": 4741,
      "ĠRev": 4742,
      "ĠChinese": 4743,
      "Ġfaster": 4744,
      "cember": 4745,
      "Ġdetermined": 4746,
      "Ġsort": 4747,
      "Ġengaging": 4748,
      "uting": 4749,
      "ĠChild": 4750,
      "ĠCanada": 4751,
      "Ġcharacteristics": 4752,
      "ometimes": 4753,
      "Ġhair": 4754,
      "ĠMc": 4755,
      "outhern": 4756,
      "Ġefficiency": 4757,
      "Ġengage": 4758,
      "Ġjoint": 4759,
      "\\\\": 4760,
      "ĠBlack": 4761,
      "Ġchance": 4762,
      "usive": 4763,
      "Ġoccup": 4764,
      "ĠDon": 4765,
      "ĠSte": 4766,
      "Ġwalking": 4767,
      "Ġrequirements": 4768,
      "Ġfine": 4769,
      "Ġlesson": 4770,
      "ĠIts": 4771,
      "hips": 4772,
      "RE": 4773,
      "Ġexplained": 4774,
      "ĠApril": 4775,
      "ĠAmericans": 4776,
      "htt": 4777,
      "Ġhear": 4778,
      "Ġsto": 4779,
      "Ġprepar": 4780,
      "Ġeducational": 4781,
      "iment": 4782,
      "Yes": 4783,
      "Ġviews": 4784,
      "otes": 4785,
      "Ġsigns": 4786,
      "acing": 4787,
      "Ġfaith": 4788,
      "Ġreached": 4789,
      "Ġexcess": 4790,
      "ĠPower": 4791,
      "Ġamazing": 4792,
      "Ġbottom": 4793,
      "Ġleads": 4794,
      "Ġdynamics": 4795,
      "lambda": 4796,
      "Ġprefer": 4797,
      "orage": 4798,
      "ĠâĪ": 4799,
      "rest": 4800,
      "However": 4801,
      "ĠImagine": 4802,
      "Ġbecoming": 4803,
      "ser": 4804,
      "Ġupper": 4805,
      "Ġsamples": 4806,
      "Ġcontaining": 4807,
      "Ġmathematical": 4808,
      "Ġunivers": 4809,
      "Ġimproved": 4810,
      "OT": 4811,
      "Ġcoast": 4812,
      "Ġhosp": 4813,
      "iverse": 4814,
      "Ġfinally": 4815,
      "Ġschem": 4816,
      "Ġhyper": 4817,
      "ĠEducation": 4818,
      "ÂłÂłÂłÂł": 4819,
      "iform": 4820,
      "Ġinfection": 4821,
      "Ġmaintaining": 4822,
      "Ġapproximately": 4823,
      "Ġtransl": 4824,
      "ovember": 4825,
      "arge": 4826,
      "orthern": 4827,
      "ga": 4828,
      "Ġmi": 4829,
      "43": 4830,
      "Ġsong": 4831,
      "oul": 4832,
      "First": 4833,
      "09": 4834,
      "Ġju": 4835,
      "vironments": 4836,
      "Ġminimum": 4837,
      "rite": 4838,
      "Ġincreasingly": 4839,
      "ĠSar": 4840,
      "Ġstars": 4841,
      "icious": 4842,
      "Ġidentified": 4843,
      "Ġrace": 4844,
      "ĠJanuary": 4845,
      "phi": 4846,
      "Ġincome": 4847,
      "Ġdoi": 4848,
      "Ġsummer": 4849,
      "Ġrelatively": 4850,
      "Ġcitizens": 4851,
      "Ġsexual": 4852,
      "lev": 4853,
      "Ġboard": 4854,
      "ĠPeople": 4855,
      "Ġlisten": 4856,
      "Ġcontract": 4857,
      "Ġedge": 4858,
      "bi": 4859,
      "ĠBecause": 4860,
      "06": 4861,
      "Ġcommonly": 4862,
      "Ġfather": 4863,
      "ocity": 4864,
      "Ġincred": 4865,
      "bal": 4866,
      "orial": 4867,
      "infty": 4868,
      "ford": 4869,
      "Ġeconomy": 4870,
      "hab": 4871,
      "Ġmiles": 4872,
      "::": 4873,
      "Ġappreciate": 4874,
      "oke": 4875,
      "Ġpractical": 4876,
      "Ġcrop": 4877,
      "Ġwasn": 4878,
      "ometric": 4879,
      "Ġscenari": 4880,
      "rael": 4881,
      "amil": 4882,
      "imensional": 4883,
      "Ġopin": 4884,
      "Ġcombination": 4885,
      "Ġelectron": 4886,
      "Ġexists": 4887,
      "Ġremove": 4888,
      "antic": 4889,
      "ball": 4890,
      "=\"": 4891,
      "partial": 4892,
      "ĠCre": 4893,
      "57": 4894,
      "Ġnoticed": 4895,
      "07": 4896,
      "Ġmanage": 4897,
      "ĠDay": 4898,
      "ĠBr": 4899,
      "Ġextract": 4900,
      "Ġvill": 4901,
      "Ġenhance": 4902,
      "Ġbusinesses": 4903,
      "Ġborn": 4904,
      "Ġstudying": 4905,
      "ĠGeneral": 4906,
      "Ġ2020": 4907,
      "Ġmouth": 4908,
      "Ġsignificance": 4909,
      "ĠAssoci": 4910,
      "Ġbacteria": 4911,
      "Ġround": 4912,
      "ognitive": 4913,
      "Ġpartners": 4914,
      "56": 4915,
      "Ġopened": 4916,
      "Ġparallel": 4917,
      "py": 4918,
      "ĠCity": 4919,
      "Ġcreative": 4920,
      ".;": 4921,
      "Ġmonit": 4922,
      "AD": 4923,
      "section": 4924,
      "Ġnorth": 4925,
      "Ġawareness": 4926,
      "Ġthousands": 4927,
      "Ġingred": 4928,
      "Ġexamine": 4929,
      "Ġgrass": 4930,
      "ĠSer": 4931,
      "ibilities": 4932,
      "ico": 4933,
      "iance": 4934,
      "Ġfacilit": 4935,
      "Ġdoor": 4936,
      "Ġwindow": 4937,
      "urance": 4938,
      "Ġgenetic": 4939,
      "Ġphysics": 4940,
      "Ġmotiv": 4941,
      "ĠÂ·": 4942,
      "Ġdegrees": 4943,
      "Ġconv": 4944,
      "Ġbaby": 4945,
      "Ġmathematics": 4946,
      "semb": 4947,
      "Ġinvolving": 4948,
      "Ġexternal": 4949,
      "Ġgenerated": 4950,
      "asure": 4951,
      "Ġsorry": 4952,
      "Ġgrand": 4953,
      "Ġletter": 4954,
      "Ġparty": 4955,
      "erate": 4956,
      "Ġtrou": 4957,
      "Ġ2019": 4958,
      "Ġroots": 4959,
      "rue": 4960,
      "Ġremind": 4961,
      "Ġnotes": 4962,
      "ĠÏ": 4963,
      "Ġcraft": 4964,
      "Ġperformed": 4965,
      "Ġcausing": 4966,
      "Ġflowers": 4967,
      "#####": 4968,
      "Ġcities": 4969,
      "Ġmeant": 4970,
      "Ġking": 4971,
      "ĠRemember": 4972,
      "Ġreplace": 4973,
      "Ġexpert": 4974,
      "Ġod": 4975,
      "ĠTest": 4976,
      "Another": 4977,
      "enty": 4978,
      "ĠProf": 4979,
      "Ġhuge": 4980,
      "ij": 4981,
      "Ġdro": 4982,
      "Ġdiversity": 4983,
      "Ġrealized": 4984,
      "ses": 4985,
      "mm": 4986,
      "41": 4987,
      "Ġplane": 4988,
      "class": 4989,
      "Ġmeasured": 4990,
      "Ġinterested": 4991,
      "âĢĿ,": 4992,
      "bar": 4993,
      "Ġesc": 4994,
      "Ġenvironments": 4995,
      "ortunately": 4996,
      "dent": 4997,
      "icated": 4998,
      "pected": 4999,
      "Ġlabel": 5000,
      "ferent": 5001,
      "cohol": 5002,
      "down": 5003,
      "osite": 5004,
      "hetic": 5005,
      "eps": 5006,
      "Ġseg": 5007,
      "Ġpages": 5008,
      "poses": 5009,
      "Ġhop": 5010,
      "ĠArch": 5011,
      "ml": 5012,
      "ĠSet": 5013,
      "Ġflex": 5014,
      "ĠWork": 5015,
      "Ġfruit": 5016,
      "\")": 5017,
      "mary": 5018,
      "rence": 5019,
      "Ġsuggests": 5020,
      "Ġresil": 5021,
      "Ġsuppl": 5022,
      "apping": 5023,
      "ĠOb": 5024,
      "Ġconsumption": 5025,
      "Ġcreation": 5026,
      "ĠHel": 5027,
      "ĠBra": 5028,
      "ĠGovern": 5029,
      "Ġcycle": 5030,
      "Ġurban": 5031,
      "amb": 5032,
      "Ġdrop": 5033,
      "Ġband": 5034,
      "ypes": 5035,
      "ophy": 5036,
      "$$\\": 5037,
      "Ġelim": 5038,
      "position": 5039,
      "Ġexperienced": 5040,
      "ressive": 5041,
      "PA": 5042,
      "Ġgenerations": 5043,
      "Ġwait": 5044,
      "ĠCong": 5045,
      "eline": 5046,
      "ris": 5047,
      "Ġsustainable": 5048,
      "Ġprecise": 5049,
      "Ġ70": 5050,
      "Ġgeneration": 5051,
      "Ġaren": 5052,
      "Ġclearly": 5053,
      "aur": 5054,
      "Ġbeg": 5055,
      "Ġencourage": 5056,
      "Ġsaying": 5057,
      "Ġtrain": 5058,
      "ĠPark": 5059,
      "ĠMr": 5060,
      "ĠBob": 5061,
      "Ġnotice": 5062,
      "ĠEngland": 5063,
      "Ġengineering": 5064,
      "xiety": 5065,
      "Ġsecret": 5066,
      "ception": 5067,
      "Ġemotions": 5068,
      "Ġimmediately": 5069,
      "Ġimpl": 5070,
      "inant": 5071,
      "Ġclust": 5072,
      "Ġfrequently": 5073,
      "ipped": 5074,
      "align": 5075,
      "yd": 5076,
      "Ġsmart": 5077,
      "ĠSeptember": 5078,
      "irt": 5079,
      "Ġunc": 5080,
      "Ġriver": 5081,
      "Ġrecip": 5082,
      "Ġparticipants": 5083,
      "mark": 5084,
      "Ġgrad": 5085,
      "Ġ2005": 5086,
      "Ġmoved": 5087,
      "Ġinterests": 5088,
      "ĠRiver": 5089,
      "Ġstick": 5090,
      "gra": 5091,
      "Ġfamiliar": 5092,
      "eech": 5093,
      "Ġadventure": 5094,
      "Pl": 5095,
      "ĠWilliam": 5096,
      "stitution": 5097,
      "Ġ?": 5098,
      "space": 5099,
      "Ġexplan": 5100,
      "Ġchoices": 5101,
      "Ġscreen": 5102,
      "ams": 5103,
      "CO": 5104,
      "Ġplans": 5105,
      "flow": 5106,
      "roph": 5107,
      "Ġhighlight": 5108,
      "ondon": 5109,
      "Ġcurve": 5110,
      "Ġclick": 5111,
      "certain": 5112,
      "Ġcommerc": 5113,
      "ĠDecember": 5114,
      "faces": 5115,
      "Ġdefault": 5116,
      "ingly": 5117,
      "Ġideal": 5118,
      "ĠOctober": 5119,
      "lin": 5120,
      "Ġlik": 5121,
      "box": 5122,
      "anch": 5123,
      "Ġfemale": 5124,
      "Ġpolynom": 5125,
      "ĠFree": 5126,
      "Some": 5127,
      "Ġexistence": 5128,
      "ĠRoman": 5129,
      "Ġmedicine": 5130,
      "Ġaccurate": 5131,
      "Ġfreedom": 5132,
      "Ġmode": 5133,
      "Ġrelease": 5134,
      "Ġequivalent": 5135,
      "men": 5136,
      "Ġconsistent": 5137,
      "ĠProt": 5138,
      "Ġadvoc": 5139,
      "All": 5140,
      "being": 5141,
      "Ġformer": 5142,
      "Ġfederal": 5143,
      "Ġoxygen": 5144,
      "Ġblocks": 5145,
      "Ġbeliefs": 5146,
      "Ġconsequences": 5147,
      "Ġartists": 5148,
      "Ġsufficient": 5149,
      "Ġ69": 5150,
      "Ġassist": 5151,
      "Ġinfect": 5152,
      "ĠIsrael": 5153,
      "Ġisol": 5154,
      "matrix": 5155,
      "Ġproport": 5156,
      "ĠMom": 5157,
      "Ġpush": 5158,
      "data": 5159,
      "Ġson": 5160,
      "03": 5161,
      "Ġdrive": 5162,
      "Ġvast": 5163,
      "Ġtalking": 5164,
      "la": 5165,
      "Ġteeth": 5166,
      "rate": 5167,
      "ĠBoth": 5168,
      "Ġwaves": 5169,
      "ĠBook": 5170,
      "orge": 5171,
      "Ġrespectively": 5172,
      "ĠSociety": 5173,
      "aign": 5174,
      "struct": 5175,
      "Ġoptimal": 5176,
      "Ġsouth": 5177,
      "Ġnutri": 5178,
      "Ġthick": 5179,
      "Ġ2006": 5180,
      "Ġmagnetic": 5181,
      "Ġotherwise": 5182,
      "Ġbatter": 5183,
      "ĠMex": 5184,
      "atin": 5185,
      "related": 5186,
      "Ġpreserv": 5187,
      "ashington": 5188,
      "Ġassign": 5189,
      "Ġhoriz": 5190,
      "Ġfix": 5191,
      "net": 5192,
      "Ġjournal": 5193,
      "Ġalt": 5194,
      "rect": 5195,
      "04": 5196,
      "ĠProgram": 5197,
      "Ġvolt": 5198,
      "Ġpromoting": 5199,
      "Ġradiation": 5200,
      "Ġsettings": 5201,
      "Ġemail": 5202,
      "ION": 5203,
      "Have": 5204,
      "Ġfigures": 5205,
      "from": 5206,
      "iat": 5207,
      "Ġnative": 5208,
      "Ġformation": 5209,
      "}=": 5210,
      "Ġvision": 5211,
      "Ġestimated": 5212,
      "uddenly": 5213,
      "Ġfocused": 5214,
      "Ġscript": 5215,
      "Ġocean": 5216,
      "Ġmo": 5217,
      "ML": 5218,
      "Ġjustice": 5219,
      "ĠElect": 5220,
      "anges": 5221,
      "Ġsac": 5222,
      "Ġclosely": 5223,
      "Ġcurious": 5224,
      "SE": 5225,
      "inations": 5226,
      "Ġintegral": 5227,
      "76": 5228,
      "house": 5229,
      "Ġinteractions": 5230,
      "Ġremov": 5231,
      ">>": 5232,
      "ĠNovember": 5233,
      "ĠDNA": 5234,
      "Ġwinter": 5235,
      "akers": 5236,
      "ĠWater": 5237,
      "CC": 5238,
      "Ġresist": 5239,
      "Ġkeeping": 5240,
      "Ġgather": 5241,
      "emy": 5242,
      "Ab": 5243,
      "Ġeight": 5244,
      "Ġbelieved": 5245,
      "Ġgene": 5246,
      "Ġpictures": 5247,
      "Ġacceler": 5248,
      "Ġspent": 5249,
      "ias": 5250,
      "Ġbank": 5251,
      "reed": 5252,
      "ĠAlex": 5253,
      "ĠJewish": 5254,
      "Ġguess": 5255,
      "Ġforeign": 5256,
      "ishing": 5257,
      "mp": 5258,
      "Ġalgorithms": 5259,
      "Ġtiny": 5260,
      "Ġtraditions": 5261,
      "ĠPract": 5262,
      "rich": 5263,
      "Ġstim": 5264,
      "omas": 5265,
      "ãĢ": 5266,
      "sol": 5267,
      "HE": 5268,
      "ifies": 5269,
      "Ġpreviously": 5270,
      "Ġcolumn": 5271,
      "urg": 5272,
      "ĠIntroduction": 5273,
      "Ġperspectives": 5274,
      "Ġdrawing": 5275,
      "uracy": 5276,
      "Ġdestro": 5277,
      "Ġillness": 5278,
      "ĠSocial": 5279,
      "ĠâĪĴ": 5280,
      "linear": 5281,
      "alt": 5282,
      "ho": 5283,
      "Ġestimate": 5284,
      "Ġperspective": 5285,
      "Ġourselves": 5286,
      "asion": 5287,
      "Can": 5288,
      "Ġprimarily": 5289,
      "Ġsyn": 5290,
      "Ġdomain": 5291,
      "isation": 5292,
      "Ġfol": 5293,
      "ouncil": 5294,
      "Ġprogramming": 5295,
      "Ġmel": 5296,
      "ĠEast": 5297,
      "ĠHave": 5298,
      "Ġdiabetes": 5299,
      "ogue": 5300,
      "Ġ_": 5301,
      "Ġmovements": 5302,
      "Ġshowing": 5303,
      "Ġtemperatures": 5304,
      "Ġdepth": 5305,
      "Ġdelve": 5306,
      "Ġslightly": 5307,
      "Ġworldwide": 5308,
      "Ġcontinues": 5309,
      "Ġseek": 5310,
      "RO": 5311,
      "ressed": 5312,
      "})": 5313,
      "oted": 5314,
      "Ġconservation": 5315,
      "iated": 5316,
      "ruary": 5317,
      "Ġtouch": 5318,
      "Ġap": 5319,
      "Ġradio": 5320,
      "Ġarm": 5321,
      "ĠTwo": 5322,
      "54": 5323,
      "Ġconvent": 5324,
      "Ġbrother": 5325,
      "tion": 5326,
      "Ġfaced": 5327,
      "Ġcovered": 5328,
      "ĠPlan": 5329,
      "Ġexcell": 5330,
      "ĠDet": 5331,
      "Ġobvious": 5332,
      "itage": 5333,
      "Ġsymmet": 5334,
      "Ġsurvey": 5335,
      "bed": 5336,
      "Ġhighest": 5337,
      "ĠConsider": 5338,
      "Ġvul": 5339,
      "Ġ;": 5340,
      "Ġwis": 5341,
      "Ġfluid": 5342,
      "no": 5343,
      "Ġdatab": 5344,
      "Ġmilk": 5345,
      "Post": 5346,
      "inf": 5347,
      "Ġongoing": 5348,
      "Ġknows": 5349,
      "Ġlandscape": 5350,
      "Ġcars": 5351,
      "Ġmission": 5352,
      "airs": 5353,
      "ava": 5354,
      "Ġdepends": 5355,
      "ĠAv": 5356,
      "Ġformal": 5357,
      "itis": 5358,
      "Ġtrib": 5359,
      "Ġcatch": 5360,
      "Ġflo": 5361,
      "Ġcarried": 5362,
      "Ġinvent": 5363,
      "Ġstorage": 5364,
      "Ġenable": 5365,
      "Ġimplementation": 5366,
      "Bob": 5367,
      "Ġrecords": 5368,
      "Ġtens": 5369,
      "Ġvelocity": 5370,
      "(\"": 5371,
      "Ġbillion": 5372,
      "asp": 5373,
      "Ġec": 5374,
      "Ġreduction": 5375,
      "Ġpip": 5376,
      "Ġleaving": 5377,
      "Ġspiritual": 5378,
      "ĠEv": 5379,
      "Ġbow": 5380,
      "Ġseeking": 5381,
      "Ġtransition": 5382,
      "dimensional": 5383,
      "ĠNote": 5384,
      "cosystem": 5385,
      "Ġhelpful": 5386,
      "ĠEnvironment": 5387,
      "Ġcultiv": 5388,
      "Ġfostering": 5389,
      "plicated": 5390,
      "lick": 5391,
      "Ġbud": 5392,
      "Ġ61": 5393,
      "Ġtour": 5394,
      "Ġdiscussed": 5395,
      "inity": 5396,
      "ĠChurch": 5397,
      "state": 5398,
      "adr": 5399,
      "pling": 5400,
      "53": 5401,
      "Ġletters": 5402,
      "Ġassume": 5403,
      "ocument": 5404,
      "Ġtheorem": 5405,
      "ogether": 5406,
      "abel": 5407,
      "aker": 5408,
      "ĠStat": 5409,
      "Ġ2000": 5410,
      "ĠUp": 5411,
      "lamm": 5412,
      "Ġiron": 5413,
      "Ġ90": 5414,
      "ĠAnna": 5415,
      "Ġdoub": 5416,
      "herent": 5417,
      "ht": 5418,
      "89": 5419,
      "Ġliquid": 5420,
      "Ġinfluen": 5421,
      "ĠPublic": 5422,
      "Ġmanif": 5423,
      "Ġmere": 5424,
      "Ġinteraction": 5425,
      "gypt": 5426,
      "ira": 5427,
      "ilon": 5428,
      "Ġmeeting": 5429,
      "Ġchain": 5430,
      "olars": 5431,
      "never": 5432,
      "Ġwidely": 5433,
      "ibl": 5434,
      "ĠAnalysis": 5435,
      "Ġdied": 5436,
      "Ġconflict": 5437,
      "ĠAD": 5438,
      "Ġinstitutions": 5439,
      "ĠNet": 5440,
      "Ġtissue": 5441,
      "orrow": 5442,
      "Ġabsolute": 5443,
      "ĠPers": 5444,
      "Ġchosen": 5445,
      "Ġwants": 5446,
      "cel": 5447,
      "Ġhidden": 5448,
      "Ġorigin": 5449,
      "Res": 5450,
      "ĠWind": 5451,
      "Ġunderlying": 5452,
      "igration": 5453,
      "Ġroles": 5454,
      "ĠTr": 5455,
      "Ġsud": 5456,
      "Ġyellow": 5457,
      "istical": 5458,
      "Ġenab": 5459,
      "Ġcombined": 5460,
      "Ġacademic": 5461,
      "US": 5462,
      "ĠGermany": 5463,
      "ĠSun": 5464,
      "ocation": 5465,
      "52": 5466,
      "Ġpaint": 5467,
      "ĠGreen": 5468,
      "Ġshapes": 5469,
      "LE": 5470,
      "ifferent": 5471,
      "kay": 5472,
      "ĠBas": 5473,
      "Ġrelation": 5474,
      "Ġprofessionals": 5475,
      "mal": 5476,
      "Ġconfig": 5477,
      "ĠOut": 5478,
      "ĠWashington": 5479,
      "Ġprepared": 5480,
      "ĠLondon": 5481,
      "Ġcomplexity": 5482,
      "Ġholds": 5483,
      "ĠTime": 5484,
      "Ġple": 5485,
      "Ġshaping": 5486,
      "ĠSuch": 5487,
      "Ġobservations": 5488,
      "oding": 5489,
      "Ġturns": 5490,
      "ĠFe": 5491,
      "Ġsubm": 5492,
      "Ġthemes": 5493,
      "ĠST": 5494,
      "Ġstaff": 5495,
      "gery": 5496,
      "sigma": 5497,
      "Ġplastic": 5498,
      "ansion": 5499,
      "Ġpackage": 5500,
      "ĠAN": 5501,
      "Ġselected": 5502,
      "Ġreturns": 5503,
      "Ġreligion": 5504,
      "Ġcapable": 5505,
      "arp": 5506,
      "aint": 5507,
      "'d": 5508,
      "arn": 5509,
      "51": 5510,
      "Ġarticles": 5511,
      "ĠPM": 5512,
      "Ġsweet": 5513,
      "Ġsnow": 5514,
      "Ġhomes": 5515,
      "what": 5516,
      "Ġnuclear": 5517,
      "stood": 5518,
      "Ġexchange": 5519,
      "ĠSan": 5520,
      "Ġindu": 5521,
      "Ġhol": 5522,
      "Ġanxiety": 5523,
      "ĠSimilarly": 5524,
      "ĠFound": 5525,
      "Ġfunctional": 5526,
      "ĠLearning": 5527,
      "Ġoffice": 5528,
      "ĠWestern": 5529,
      "Ġdrugs": 5530,
      "Ġcop": 5531,
      "rack": 5532,
      "Ġapart": 5533,
      "Ġinequ": 5534,
      "Ġminor": 5535,
      "itz": 5536,
      "ĠFinally": 5537,
      "Ġcm": 5538,
      "Ġtow": 5539,
      "Ġspring": 5540,
      "ĠPresident": 5541,
      "ameter": 5542,
      "EE": 5543,
      "Ġ72": 5544,
      "Ġprocedure": 5545,
      "Ġimmune": 5546,
      "Ġfly": 5547,
      "aughter": 5548,
      "ĠProject": 5549,
      "ĠExp": 5550,
      "Ġemissions": 5551,
      "ĠMult": 5552,
      "ĠMich": 5553,
      "ĠGreek": 5554,
      "My": 5555,
      "Ġpossess": 5556,
      "Ġvirus": 5557,
      "Ġlens": 5558,
      "ĠThink": 5559,
      "kin": 5560,
      "Ġproperly": 5561,
      "ĠDevelopment": 5562,
      "Ġframework": 5563,
      "Ġfloor": 5564,
      "leg": 5565,
      "that": 5566,
      "Ġadvantage": 5567,
      "ĠDavid": 5568,
      "Ġlies": 5569,
      "çļ": 5570,
      "Ġderived": 5571,
      "lo": 5572,
      "Ġchurch": 5573,
      "Ġexamining": 5574,
      "ĠForm": 5575,
      "Ġsin": 5576,
      "Ġcollaboration": 5577,
      "rog": 5578,
      "Ġasking": 5579,
      "Ġreports": 5580,
      "ĠEgypt": 5581,
      "Ġfraction": 5582,
      "^{\\": 5583,
      "ptions": 5584,
      "Ġdisorders": 5585,
      "unk": 5586,
      "icks": 5587,
      "Ġconsists": 5588,
      "itter": 5589,
      "Ġmatch": 5590,
      "Ġpotentially": 5591,
      "Ġdatas": 5592,
      "ĠOff": 5593,
      "Ġtox": 5594,
      "python": 5595,
      "plication": 5596,
      "Ġmuscle": 5597,
      "ĠInf": 5598,
      "Ġfilter": 5599,
      "ĠBay": 5600,
      "Ġvulner": 5601,
      "Ġframe": 5602,
      "Ġmorning": 5603,
      "Ġcompl": 5604,
      "ĠStr": 5605,
      "Ġnarratives": 5606,
      "çļĦ": 5607,
      "Ġmajority": 5608,
      "Ġpurposes": 5609,
      "Ġmale": 5610,
      "00000000": 5611,
      "otal": 5612,
      "Ġfilm": 5613,
      "hand": 5614,
      "aug": 5615,
      "Ġdiscrim": 5616,
      "Ġpregn": 5617,
      "Ġclassroom": 5618,
      "orical": 5619,
      "Ġfert": 5620,
      "Ġbuildings": 5621,
      "Ġdecades": 5622,
      "enth": 5623,
      "ki": 5624,
      "$$.": 5625,
      "Ġreferred": 5626,
      "Ġmedium": 5627,
      "Ġconstraint": 5628,
      "63": 5629,
      "Ġrecognize": 5630,
      "level": 5631,
      "Ġcommercial": 5632,
      "Ġrecon": 5633,
      "Ġsecure": 5634,
      "ĠMedic": 5635,
      "iders": 5636,
      "Ġbutter": 5637,
      "Ġspin": 5638,
      "Ġdram": 5639,
      "Ġjoin": 5640,
      "nes": 5641,
      "Ġdisorder": 5642,
      "Ġ##": 5643,
      "ologists": 5644,
      "Ġviolence": 5645,
      "Ġyes": 5646,
      "Ġhurt": 5647,
      "ĠHuman": 5648,
      "berg": 5649,
      "za": 5650,
      "à¤": 5651,
      "Ġlayers": 5652,
      "Ġdisapp": 5653,
      "Ġdangerous": 5654,
      "Ġsupported": 5655,
      "Ġtreated": 5656,
      "])": 5657,
      "oyal": 5658,
      "Ġcalculated": 5659,
      "Ġcourt": 5660,
      "ossible": 5661,
      "Ġprinciple": 5662,
      "ultane": 5663,
      "Ġclinical": 5664,
      "Ġmer": 5665,
      "Ġtechnical": 5666,
      "En": 5667,
      "ĠSecond": 5668,
      "Ġhun": 5669,
      "ĠGr": 5670,
      "Ġrepresented": 5671,
      "Ġterrit": 5672,
      "Ġconducted": 5673,
      "Ġextremely": 5674,
      "lude": 5675,
      "Ġselection": 5676,
      "ĠMor": 5677,
      "ĠOrgan": 5678,
      "ĠStep": 5679,
      "ĠFrance": 5680,
      "Ġsubsequ": 5681,
      "Ġnp": 5682,
      "Ġindicate": 5683,
      "Ġwealth": 5684,
      "Ġforg": 5685,
      "ĠMary": 5686,
      "ourage": 5687,
      "Ġindustrial": 5688,
      "while": 5689,
      "essel": 5690,
      "ĠAdd": 5691,
      "Ġnod": 5692,
      "âĦ": 5693,
      "Ind": 5694,
      "Ġalcohol": 5695,
      "Ġagg": 5696,
      "iration": 5697,
      "ificial": 5698,
      "ĠJapanese": 5699,
      "Ġelectricity": 5700,
      "Ġecosystem": 5701,
      "Ġcomputers": 5702,
      "ĠStand": 5703,
      "Ġatmosphere": 5704,
      "olf": 5705,
      "Ġorganic": 5706,
      "Ġloud": 5707,
      "}_": 5708,
      "cules": 5709,
      "Ġstation": 5710,
      "ĠCalcul": 5711,
      "ulf": 5712,
      "itc": 5713,
      "cknow": 5714,
      "ï¿½ï¿½": 5715,
      "ek": 5716,
      "Ġshif": 5717,
      "Ġexperts": 5718,
      "icial": 5719,
      "Ġhour": 5720,
      "well": 5721,
      "Ġassessment": 5722,
      "ĠSarah": 5723,
      "SS": 5724,
      "making": 5725,
      "Ġerrors": 5726,
      "Ġcenturies": 5727,
      "Ġamounts": 5728,
      "Ġmotor": 5729,
      "ĠCourse": 5730,
      "Ġyield": 5731,
      "Ġ80": 5732,
      "Ġconcentration": 5733,
      "Ġexpon": 5734,
      "bor": 5735,
      "Ġmoral": 5736,
      "Ġtriangle": 5737,
      "Ġresponsibility": 5738,
      "alled": 5739,
      "Ġinfinite": 5740,
      "Ġcollege": 5741,
      "ĠNon": 5742,
      "uilding": 5743,
      "Ġhousehold": 5744,
      "Ġinnovative": 5745,
      "Ġnutrition": 5746,
      "Ġlinked": 5747,
      "using": 5748,
      "Ġhole": 5749,
      "Ġinsect": 5750,
      "Ġfirm": 5751,
      "Ġbrave": 5752,
      "Ġimpacts": 5753,
      "tic": 5754,
      "Ġcognitive": 5755,
      "othing": 5756,
      "Ġneighbor": 5757,
      "Ġsubjects": 5758,
      "Ã¡": 5759,
      "Finally": 5760,
      "Ġoperating": 5761,
      "Ġboundary": 5762,
      "Ġscore": 5763,
      "Ġthin": 5764,
      "Ġdesired": 5765,
      "ĠMethod": 5766,
      "Ġaccuracy": 5767,
      "ï¼Į": 5768,
      "Ġremoved": 5769,
      "ĠAustralia": 5770,
      "anted": 5771,
      "Ġblog": 5772,
      "yles": 5773,
      "ĠÂ»": 5774,
      "Ġsuggested": 5775,
      "Ġsolving": 5776,
      "Ġrein": 5777,
      "Ġsuitable": 5778,
      "Ġtun": 5779,
      "Ġfalse": 5780,
      "BC": 5781,
      "Ġinner": 5782,
      "isp": 5783,
      "road": 5784,
      "Ġtruly": 5785,
      "73": 5786,
      "Ġflat": 5787,
      "Ġfell": 5788,
      "Ġspeech": 5789,
      "Ġultimately": 5790,
      "Ġstarts": 5791,
      "ĠGoogle": 5792,
      "rieved": 5793,
      "Ġwet": 5794,
      "Ġknowing": 5795,
      "Ġintric": 5796,
      "mic": 5797,
      "Ar": 5798,
      "Ġnor": 5799,
      "Ġfeedback": 5800,
      "86": 5801,
      "Ġinteger": 5802,
      "Ġguidelines": 5803,
      "ĠEnergy": 5804,
      "top": 5805,
      "Ġexplicit": 5806,
      "Ġdynamic": 5807,
      "Ġ${": 5808,
      "ĠPal": 5809,
      "Ġperiods": 5810,
      "exp": 5811,
      "Ġhandle": 5812,
      "ĠFebruary": 5813,
      "tex": 5814,
      "Ġannual": 5815,
      "oughly": 5816,
      "Ġuniverse": 5817,
      "utive": 5818,
      "}$.": 5819,
      "Ġcampaign": 5820,
      "requ": 5821,
      "ĠSometimes": 5822,
      "Ġvoltage": 5823,
      "Ġantib": 5824,
      "Ġ73": 5825,
      "Ġdivided": 5826,
      "Ġseven": 5827,
      "ĠConf": 5828,
      "ĠJul": 5829,
      "Ġvs": 5830,
      "ears": 5831,
      "Ġpros": 5832,
      "nic": 5833,
      "Ġoffering": 5834,
      "ĠBel": 5835,
      "ĠPaul": 5836,
      "ĠFin": 5837,
      "Ġserved": 5838,
      "Conclusion": 5839,
      "rics": 5840,
      "Ġimproving": 5841,
      "Ġkinds": 5842,
      "ĠâĨ": 5843,
      "Ġtaught": 5844,
      "Ġdin": 5845,
      "Ġsend": 5846,
      "Ġdiscovery": 5847,
      "eria": 5848,
      "ĠMet": 5849,
      "Ġrig": 5850,
      "ĠAI": 5851,
      "Ġcreates": 5852,
      "Ġexperiments": 5853,
      "Ġmixed": 5854,
      "SD": 5855,
      "ĠHouse": 5856,
      "comm": 5857,
      "lements": 5858,
      "iest": 5859,
      "Ġlimits": 5860,
      "Ġreturned": 5861,
      "Ġpure": 5862,
      "More": 5863,
      "Ġ->": 5864,
      "Ġaddressing": 5865,
      "value": 5866,
      "ĠJames": 5867,
      "Ġpull": 5868,
      "Ġampl": 5869,
      "ĠPhil": 5870,
      "She": 5871,
      "Ġgal": 5872,
      "Ġnan": 5873,
      "ĠLife": 5874,
      "Ġvegetables": 5875,
      "Ġconfidence": 5876,
      "Ġingredients": 5877,
      "ĠSystems": 5878,
      "Ġdifferential": 5879,
      "Ġvirtual": 5880,
      "ander": 5881,
      "Ġinformed": 5882,
      "Ġfold": 5883,
      "Ġhit": 5884,
      "Ġnearby": 5885,
      "Ġslowly": 5886,
      "ĠDem": 5887,
      "ĠEngine": 5888,
      "Ġtexts": 5889,
      "fered": 5890,
      "Ġdu": 5891,
      "Ġmeasurements": 5892,
      "Ġsports": 5893,
      "Ġphone": 5894,
      "Ġrestrict": 5895,
      "Ġsubstant": 5896,
      "max": 5897,
      "Ġbreast": 5898,
      "ĠUnion": 5899,
      "Ġ31": 5900,
      "Ġrelax": 5901,
      "Ġpal": 5902,
      "rome": 5903,
      "LL": 5904,
      "Ġcategory": 5905,
      "riv": 5906,
      "field": 5907,
      "Ġreleased": 5908,
      "ĠStudents": 5909,
      "ĠUN": 5910,
      "Ġfailure": 5911,
      "isher": 5912,
      "Ġring": 5913,
      "Ġparticle": 5914,
      "ords": 5915,
      "ĠMake": 5916,
      "ups": 5917,
      "Ġfrag": 5918,
      "pack": 5919,
      "}}{": 5920,
      "hent": 5921,
      "Zbl": 5922,
      "ĠMaybe": 5923,
      "Ġmanip": 5924,
      "72": 5925,
      "Ġmaps": 5926,
      "Ġthr": 5927,
      "ront": 5928,
      "vec": 5929,
      "ĠExper": 5930,
      "cript": 5931,
      "ĠInternet": 5932,
      "sim": 5933,
      "Ġrul": 5934,
      "Ġtells": 5935,
      "ĠDist": 5936,
      "Ġuncertain": 5937,
      "Ġrecommended": 5938,
      "ellect": 5939,
      "spec": 5940,
      "Ġexciting": 5941,
      "sm": 5942,
      "Ġstudied": 5943,
      "ulating": 5944,
      "lig": 5945,
      "Ġtum": 5946,
      "Ġship": 5947,
      "Ġstronger": 5948,
      "Ġdie": 5949,
      "bert": 5950,
      "ĠFig": 5951,
      "Ġconsult": 5952,
      "Ġelectrical": 5953,
      "SA": 5954,
      "itors": 5955,
      "Com": 5956,
      "RI": 5957,
      "ĠIdent": 5958,
      "Ġthanks": 5959,
      "ĠAssociation": 5960,
      "ulum": 5961,
      "Ġconsidering": 5962,
      "Ġsignals": 5963,
      "vis": 5964,
      "appy": 5965,
      "umer": 5966,
      "Ġoverl": 5967,
      "Ġarrived": 5968,
      "Note": 5969,
      "Ġrect": 5970,
      "racing": 5971,
      "Ġcircumst": 5972,
      "ĠCult": 5973,
      "Ġfacts": 5974,
      "Ġbone": 5975,
      "85": 5976,
      "Ġdecide": 5977,
      "Ġbroken": 5978,
      "Ġlic": 5979,
      "</": 5980,
      "ĠLike": 5981,
      "Ġresilience": 5982,
      "Ġstability": 5983,
      "')": 5984,
      "Ġremark": 5985,
      "ĠMathematics": 5986,
      "Ġpersist": 5987,
      "74": 5988,
      "icing": 5989,
      "Ġintelligence": 5990,
      "Ġburn": 5991,
      "Ġstopped": 5992,
      "Ġprices": 5993,
      "Ġshell": 5994,
      "ĠÃ¢": 5995,
      "Ġmonitoring": 5996,
      "Ġuniform": 5997,
      "Ġdiscussions": 5998,
      "Ġlegis": 5999,
      "Ġcareer": 6000,
      "71": 6001,
      "Ġserves": 6002,
      "Ġdocuments": 6003,
      "ĠAut": 6004,
      "ĠKeep": 6005,
      "Ġdepression": 6006,
      "ĠAng": 6007,
      "Ġmechanisms": 6008,
      "Tom": 6009,
      "Ġbrief": 6010,
      "Ġtall": 6011,
      "Ġbehaviors": 6012,
      "Ġhugged": 6013,
      "Ġboundaries": 6014,
      "Ġmissing": 6015,
      "ĠDirect": 6016,
      "omorph": 6017,
      "ĠKey": 6018,
      "Ġmessages": 6019,
      "Ġincredible": 6020,
      "arant": 6021,
      "Ġshift": 6022,
      "Ġregional": 6023,
      "Ġowners": 6024,
      "}}$": 6025,
      "free": 6026,
      "Ġ75": 6027,
      "Ġoffered": 6028,
      "ĠCounty": 6029,
      "nect": 6030,
      "Me": 6031,
      "Ġexcellent": 6032,
      "Ġincorporating": 6033,
      "aph": 6034,
      "Ġkid": 6035,
      "Ġyouth": 6036,
      "ament": 6037,
      "Ġgenes": 6038,
      "rastructure": 6039,
      "ael": 6040,
      "Ã¶": 6041,
      "Ġcircuit": 6042,
      "orous": 6043,
      "Ġreserv": 6044,
      "Before": 6045,
      "Ġdisp": 6046,
      "anguage": 6047,
      "big": 6048,
      "Ġarguments": 6049,
      "---": 6050,
      "iosity": 6051,
      "Ġmostly": 6052,
      "inent": 6053,
      "Ġunderstood": 6054,
      "Ġdestroy": 6055,
      "Ġthor": 6056,
      "DE": 6057,
      "Ġwear": 6058,
      "Ġmeasurement": 6059,
      "Ġfab": 6060,
      "active": 6061,
      "++": 6062,
      "New": 6063,
      "atever": 6064,
      "Ġspend": 6065,
      "Ġexpressions": 6066,
      "uls": 6067,
      "ails": 6068,
      "ĠAnother": 6069,
      "Ġdetailed": 6070,
      "Su": 6071,
      "Ġ45": 6072,
      "atial": 6073,
      "Ġpun": 6074,
      "oose": 6075,
      "DA": 6076,
      "rary": 6077,
      "ĠFood": 6078,
      "Ġdedicated": 6079,
      "ĠIslam": 6080,
      "Ġresolution": 6081,
      "ĠModel": 6082,
      "icians": 6083,
      "Ġgod": 6084,
      "Ġevaluate": 6085,
      "Ġ$(": 6086,
      "Ġinnovation": 6087,
      "Ġexploration": 6088,
      "rapy": 6089,
      "rox": 6090,
      "Ġ~": 6091,
      "Ġmac": 6092,
      "ĠApplic": 6093,
      "Ġmit": 6094,
      "Ġaimed": 6095,
      "Ġ2004": 6096,
      "oma": 6097,
      "Ġlinks": 6098,
      "roduct": 6099,
      "Ġvibr": 6100,
      "anged": 6101,
      "ĠCollege": 6102,
      "ĠManagement": 6103,
      "Ġfiction": 6104,
      "Ġintended": 6105,
      "Ġremaining": 6106,
      "Ġcandid": 6107,
      "Ġaid": 6108,
      "Ġdemonstrate": 6109,
      "Ġinvestment": 6110,
      "Ġsymbols": 6111,
      "iot": 6112,
      "ested": 6113,
      "Ġstable": 6114,
      "Ġtitle": 6115,
      "Ġexpressed": 6116,
      "ĠTheory": 6117,
      "Ġmeat": 6118,
      "Ġforget": 6119,
      "Ġpeak": 6120,
      "ĠGeorge": 6121,
      "itness": 6122,
      "Ġbroader": 6123,
      "ĠControl": 6124,
      "Ġconcentr": 6125,
      "Ġchronic": 6126,
      "Ġtreatments": 6127,
      "aser": 6128,
      "Ġruns": 6129,
      "Ġimplications": 6130,
      "Ġcolle": 6131,
      "racy": 6132,
      "ria": 6133,
      "Then": 6134,
      "Ġdescription": 6135,
      "Ġplayers": 6136,
      "ĠMac": 6137,
      "Ġmal": 6138,
      "Ġparties": 6139,
      "itative": 6140,
      "aturally": 6141,
      "ĠWeb": 6142,
      "Ġstret": 6143,
      "Ġeggs": 6144,
      "stein": 6145,
      "Cont": 6146,
      "Ġindeed": 6147,
      "Ġsupporting": 6148,
      "uing": 6149,
      "Ġwire": 6150,
      "color": 6151,
      "Ġspecified": 6152,
      "Our": 6153,
      "ãģ": 6154,
      "ĠProble": 6155,
      "Ġfill": 6156,
      "Ġcomposition": 6157,
      "Ġstorm": 6158,
      "Ġprotocol": 6159,
      "$$,": 6160,
      "Ġgoods": 6161,
      "ĠUK": 6162,
      "Ġresol": 6163,
      "Ġrapidly": 6164,
      "Ġrenew": 6165,
      "Ġplatforms": 6166,
      "Ġsalt": 6167,
      "Ġscholars": 6168,
      "ĠDesign": 6169,
      "Ġtrends": 6170,
      "Ġtransformation": 6171,
      "Ġsimultane": 6172,
      "Ġhypothes": 6173,
      "Ġseeds": 6174,
      "eding": 6175,
      "Ġ35": 6176,
      "oom": 6177,
      "Ġguidance": 6178,
      "Ġcreativity": 6179,
      "riers": 6180,
      "Ġresponses": 6181,
      "Ġprocedures": 6182,
      "Ġdeliver": 6183,
      "Ġcloud": 6184,
      "ĠTechnology": 6185,
      "itivity": 6186,
      "Ġprime": 6187,
      "rep": 6188,
      "Ġunex": 6189,
      "Ġadvice": 6190,
      "ä»": 6191,
      "Ġpolar": 6192,
      "ĠEconom": 6193,
      "ĠAC": 6194,
      "ifications": 6195,
      "Ġensures": 6196,
      "Ġahead": 6197,
      "ĠCongress": 6198,
      "62": 6199,
      "Ġcredit": 6200,
      "tee": 6201,
      "Ġsell": 6202,
      "Ġempt": 6203,
      "Ġalign": 6204,
      "ĠVir": 6205,
      "ĠMicro": 6206,
      "Ġcollected": 6207,
      "ĠPC": 6208,
      "ĠAny": 6209,
      "ĠIN": 6210,
      "ĠInformation": 6211,
      "Ġanalyze": 6212,
      "Ġcooking": 6213,
      "ĠOpen": 6214,
      "Ġswim": 6215,
      "ĠDel": 6216,
      "ĠFigure": 6217,
      "Ġfoundation": 6218,
      "ĠSpanish": 6219,
      "list": 6220,
      "Ġfoster": 6221,
      "Ġlad": 6222,
      "Ġopposite": 6223,
      "Ġvessel": 6224,
      "ĠMia": 6225,
      "Ġtypical": 6226,
      "ĠMal": 6227,
      "Ġwhereas": 6228,
      "ÃĹ": 6229,
      "oking": 6230,
      "Ġoperator": 6231,
      "ĠJe": 6232,
      "Ġaxis": 6233,
      "Ġvent": 6234,
      "body": 6235,
      "Ġdriving": 6236,
      "Ġstored": 6237,
      "Ġnations": 6238,
      "Ġreb": 6239,
      "Ġwouldn": 6240,
      "Alice": 6241,
      "Ġapproxim": 6242,
      "Ġdimension": 6243,
      "ĠGroup": 6244,
      "ologist": 6245,
      "Ġic": 6246,
      "Ġrational": 6247,
      "Ġwalked": 6248,
      "Ġjobs": 6249,
      "Ġintegration": 6250,
      "ĠPhysics": 6251,
      "Ġdimensions": 6252,
      "Ġregression": 6253,
      "61": 6254,
      "Ġelev": 6255,
      "Ġunknown": 6256,
      "Ġagreed": 6257,
      "ĠWhe": 6258,
      "........": 6259,
      "umin": 6260,
      "Ġnoted": 6261,
      "Ġacknow": 6262,
      "Ġappreciation": 6263,
      "$-": 6264,
      "Ġloop": 6265,
      "ĠEmp": 6266,
      "ait": 6267,
      "ĠLeg": 6268,
      "Ġthread": 6269,
      "Ġcalls": 6270,
      "Ġmachines": 6271,
      "95": 6272,
      "Ġenables": 6273,
      "Do": 6274,
      "Ġ32": 6275,
      "ville": 6276,
      "Ġglob": 6277,
      "band": 6278,
      "quad": 6279,
      "ĠTitle": 6280,
      "ĠNov": 6281,
      "arsh": 6282,
      "long": 6283,
      "Ġflood": 6284,
      "Ġremained": 6285,
      "Ġgar": 6286,
      "Ġdistingu": 6287,
      "ĠMart": 6288,
      "Ġclassical": 6289,
      "Ġexpansion": 6290,
      "then": 6291,
      "rium": 6292,
      "Ġbeauty": 6293,
      "Ġmanufacture": 6294,
      "Ġsensitive": 6295,
      "Ġped": 6296,
      "ĠPo": 6297,
      "Se": 6298,
      "Ġmolecules": 6299,
      "ila": 6300,
      "ĠCouncil": 6301,
      "type": 6302,
      "Ġcompare": 6303,
      "Ġacts": 6304,
      "87": 6305,
      "Ġrevolution": 6306,
      "ĠCam": 6307,
      "Ġaffects": 6308,
      "ĠWho": 6309,
      "Ġisland": 6310,
      "Ġseemed": 6311,
      "itudes": 6312,
      "9999": 6313,
      "Ġdownload": 6314,
      "Ġcere": 6315,
      "Ġwish": 6316,
      "ĠChem": 6317,
      "Ġintroduce": 6318,
      "tenance": 6319,
      "ĠTur": 6320,
      "Ġrabb": 6321,
      "ING": 6322,
      "ompl": 6323,
      "Ġseed": 6324,
      "IM": 6325,
      "Ġstock": 6326,
      "ĠEr": 6327,
      "Ġraised": 6328,
      "ĠRich": 6329,
      "Ġcouple": 6330,
      "Ġmatters": 6331,
      "ache": 6332,
      "Ġentry": 6333,
      "ĠMiddle": 6334,
      "Ġhero": 6335,
      "Ġextended": 6336,
      "ĠRober": 6337,
      "Ġpollution": 6338,
      "ĠGet": 6339,
      "ĠAcad": 6340,
      "Ġcomplicated": 6341,
      "Ġ2003": 6342,
      "Ġfib": 6343,
      "Ġfruits": 6344,
      "CH": 6345,
      "Ġelectronic": 6346,
      "luded": 6347,
      "ĠAtt": 6348,
      "ÃŃ": 6349,
      "Ġmarg": 6350,
      "ĠLi": 6351,
      "Ġinternet": 6352,
      "Ġelectro": 6353,
      "Ġconcern": 6354,
      "ĠPort": 6355,
      "uge": 6356,
      "Ġdiscipl": 6357,
      "essor": 6358,
      "etry": 6359,
      "Ġcertainly": 6360,
      "Ġprompt": 6361,
      "Ġproteins": 6362,
      "Ġclaims": 6363,
      "ilib": 6364,
      "Ġengagement": 6365,
      "Ġstuff": 6366,
      "ĠKore": 6367,
      "ĠAM": 6368,
      "Ġgovernments": 6369,
      "Ġbattle": 6370,
      "war": 6371,
      "Ġreactions": 6372,
      "unte": 6373,
      "osc": 6374,
      "but": 6375,
      "Ġcategories": 6376,
      "Ġpray": 6377,
      "ĠInteg": 6378,
      "stream": 6379,
      "arter": 6380,
      "Ġnit": 6381,
      "Ġindigenous": 6382,
      "Ġcontrolled": 6383,
      "ĠAsia": 6384,
      "ĠHol": 6385,
      "Ġmainly": 6386,
      "ĠBudd": 6387,
      "ida": 6388,
      "Ġhydrogen": 6389,
      "Ġdogs": 6390,
      "ĠFore": 6391,
      "Ġskill": 6392,
      "Ġdesigns": 6393,
      "oxide": 6394,
      "Ġcircumstances": 6395,
      "Ġrobust": 6396,
      "Ġtut": 6397,
      "Ġmeaningful": 6398,
      "Ġextent": 6399,
      "anes": 6400,
      "Ġnavigate": 6401,
      "Ġgone": 6402,
      "ĠDa": 6403,
      "Ġaccompl": 6404,
      "ĠLine": 6405,
      "Ġangry": 6406,
      "Ġpicked": 6407,
      "Ġtheories": 6408,
      "Ġgained": 6409,
      "Ġentirely": 6410,
      "Ġsam": 6411,
      "ĠAir": 6412,
      "ĠReview": 6413,
      "Ġinjury": 6414,
      "Ġshel": 6415,
      "Ġindicates": 6416,
      "ago": 6417,
      "Ġbiological": 6418,
      "wood": 6419,
      "Ġstrict": 6420,
      "size": 6421,
      "Ġeigen": 6422,
      "ĠRetrieved": 6423,
      "Ġmillions": 6424,
      "rightarrow": 6425,
      "ĠSpace": 6426,
      "Ġinterview": 6427,
      "ĠUs": 6428,
      "Ġmanaging": 6429,
      "Ġcutting": 6430,
      "Ġsector": 6431,
      "Ġatoms": 6432,
      "Ġ64": 6433,
      "Ġplate": 6434,
      "Ġfract": 6435,
      "Ġdress": 6436,
      "rian": 6437,
      "Ġthanked": 6438,
      "Ġfarmers": 6439,
      "ĠCle": 6440,
      "Ġgeometry": 6441,
      "ĠCommon": 6442,
      "Ġinfrastructure": 6443,
      "ĠExamples": 6444,
      "ĠRef": 6445,
      "scale": 6446,
      "Example": 6447,
      "Ġcryst": 6448,
      "Figure": 6449,
      "Ġpositions": 6450,
      "Ġintroduction": 6451,
      "win": 6452,
      "Ġintellect": 6453,
      "ĠRepublic": 6454,
      "ega": 6455,
      "riage": 6456,
      "Ġabilities": 6457,
      "nel": 6458,
      "ĠSum": 6459,
      "Ġlose": 6460,
      "apes": 6461,
      "Ġevaluation": 6462,
      "Ġtit": 6463,
      "Ġstrange": 6464,
      "Ġradius": 6465,
      "Ġdescribes": 6466,
      "Ġethical": 6467,
      "ihood": 6468,
      "empl": 6469,
      "ounced": 6470,
      "ĠStudy": 6471,
      "Ġcompleted": 6472,
      "Ġinstructions": 6473,
      "aughed": 6474,
      "Ġforced": 6475,
      "Ġorient": 6476,
      "ĠIsland": 6477,
      "Ġofficial": 6478,
      "Ġlaughed": 6479,
      "Ġwalls": 6480,
      "Ġpowers": 6481,
      "Ġcomprehensive": 6482,
      "Ġarchitecture": 6483,
      "Ġauthority": 6484,
      "gence": 6485,
      "Ġlogic": 6486,
      "Ġcommunicate": 6487,
      "SC": 6488,
      "Ġapparent": 6489,
      "ĠBC": 6490,
      "inding": 6491,
      "Ġfinished": 6492,
      "Ġpursu": 6493,
      "Ġfort": 6494,
      "Ġcomputing": 6495,
      "ĠChildren": 6496,
      "Ġstatistics": 6497,
      "Ġsurgery": 6498,
      "Since": 6499,
      "ĠFact": 6500,
      "Ġbegins": 6501,
      "assion": 6502,
      "Ġusage": 6503,
      "UR": 6504,
      "Ġnerv": 6505,
      "Ġspeaking": 6506,
      "cm": 6507,
      "________________": 6508,
      "Ġexposed": 6509,
      "Ġsocietal": 6510,
      "ĠDespite": 6511,
      "Ġcapture": 6512,
      "ications": 6513,
      "ibraries": 6514,
      "Ġoutl": 6515,
      "ĠVis": 6516,
      "Ġprepare": 6517,
      "dx": 6518,
      "Ġfriendly": 6519,
      "Ġremote": 6520,
      "Ġvehicle": 6521,
      "Ġwhenever": 6522,
      "Ġconscious": 6523,
      "ĠAnn": 6524,
      "Ġmanner": 6525,
      "Ġinterval": 6526,
      "ĠLord": 6527,
      "gal": 6528,
      "ka": 6529,
      "98": 6530,
      "ĠMass": 6531,
      "Ġestimates": 6532,
      "Ġaccident": 6533,
      "Ġelectrons": 6534,
      "ifier": 6535,
      "hi": 6536,
      "Ġmanaged": 6537,
      "Gen": 6538,
      "Ġbigger": 6539,
      "Ġabuse": 6540,
      "ĠOpt": 6541,
      "Ġclar": 6542,
      "Ġmechanism": 6543,
      "astern": 6544,
      "Ġarrange": 6545,
      "Ġhospital": 6546,
      "III": 6547,
      "Ġenth": 6548,
      "Ġera": 6549,
      "TeX": 6550,
      "Ġvictim": 6551,
      "normal": 6552,
      "elled": 6553,
      "ĠGa": 6554,
      "rolog": 6555,
      "Ġdatabase": 6556,
      "Ġcomments": 6557,
      "Ġempathy": 6558,
      "Ġregularly": 6559,
      "Ġimprovement": 6560,
      "ĠHen": 6561,
      "ĠKnow": 6562,
      "Ġbrow": 6563,
      "ikip": 6564,
      "See": 6565,
      "Ġseeing": 6566,
      "Ġstone": 6567,
      "Ġcorpor": 6568,
      "Ġpig": 6569,
      "ya": 6570,
      "Ġsurprise": 6571,
      "Ġconventional": 6572,
      "Ġmarked": 6573,
      "Ġcoal": 6574,
      "Ġgrid": 6575,
      "Ġcollective": 6576,
      "Ġwaiting": 6577,
      "Ġappeared": 6578,
      "ĠThanks": 6579,
      "Ġpolynomial": 6580,
      "Ġangles": 6581,
      "Tim": 6582,
      "Ġmort": 6583,
      "ASA": 6584,
      "ĠMean": 6585,
      "esson": 6586,
      "izer": 6587,
      "Ġtaste": 6588,
      "Ġdetection": 6589,
      "amm": 6590,
      "Ġhearing": 6591,
      "Ġopening": 6592,
      "Many": 6593,
      "Ġarms": 6594,
      "Ġinspired": 6595,
      "ipping": 6596,
      "Ġdecrease": 6597,
      "Ġpolitics": 6598,
      "test": 6599,
      "Ġjoy": 6600,
      "De": 6601,
      "Ġwaters": 6602,
      "ca": 6603,
      "Ġimpossible": 6604,
      "Ġnode": 6605,
      "trans": 6606,
      "ĠSep": 6607,
      "Ġrub": 6608,
      "Ġdance": 6609,
      "rays": 6610,
      "roid": 6611,
      "ĠJoh": 6612,
      "orem": 6613,
      "Last": 6614,
      "ĠLatin": 6615,
      "Ġcompetition": 6616,
      "Ben": 6617,
      "Delta": 6618,
      "fall": 6619,
      "Ġlib": 6620,
      "ĠArab": 6621,
      "Ġchart": 6622,
      "Ġwhom": 6623,
      "Ġoccurred": 6624,
      "Ġrecovery": 6625,
      "Ġtips": 6626,
      "('": 6627,
      "Ġapplying": 6628,
      "Ġpuzz": 6629,
      "ĠEst": 6630,
      "Ġnaturally": 6631,
      "Ġmassive": 6632,
      "Ġmyth": 6633,
      "crib": 6634,
      "}$,": 6635,
      "Ġcomparison": 6636,
      "Ġmolecular": 6637,
      "fortunately": 6638,
      "Ġbelief": 6639,
      "Â·Â·Â·Â·": 6640,
      "CD": 6641,
      "Ġsubstance": 6642,
      "Ġrepeated": 6643,
      "Ġvisible": 6644,
      "_\\": 6645,
      "Chapter": 6646,
      "Ġunlike": 6647,
      "ĠCentral": 6648,
      "eck": 6649,
      "Ġvectors": 6650,
      "osa": 6651,
      "Ġrecorded": 6652,
      "hered": 6653,
      "Ġspectrum": 6654,
      "ummy": 6655,
      "Ġtang": 6656,
      "Ġcuriosity": 6657,
      "ola": 6658,
      "ceived": 6659,
      "IR": 6660,
      "iday": 6661,
      "omega": 6662,
      "ĠExt": 6663,
      "clus": 6664,
      "Ġempty": 6665,
      "Ġho": 6666,
      "Ġcorrectly": 6667,
      "agon": 6668,
      "idents": 6669,
      "Ġstanding": 6670,
      "Ġcert": 6671,
      "ĠGal": 6672,
      "ĠSal": 6673,
      "Ġexpensive": 6674,
      "Ġexperimental": 6675,
      "ado": 6676,
      "BT": 6677,
      "luding": 6678,
      "Ġpool": 6679,
      "Ġexercises": 6680,
      "Ġexplanation": 6681,
      "how": 6682,
      "Ġproceed": 6683,
      "Ġphr": 6684,
      "ĠAdv": 6685,
      "Ġrecognition": 6686,
      "Ġsupports": 6687,
      "inator": 6688,
      "Ġreson": 6689,
      "ĠPen": 6690,
      "Ġcompute": 6691,
      "Ġinstruction": 6692,
      "Ġappearance": 6693,
      "ĠThomas": 6694,
      "ĠTre": 6695,
      "yr": 6696,
      "itchen": 6697,
      "Ġwidth": 6698,
      "Ġsubs": 6699,
      "84": 6700,
      ")}": 6701,
      "Ġtrial": 6702,
      "ikipedia": 6703,
      "Rec": 6704,
      "Ġauthent": 6705,
      "Ġholding": 6706,
      "Ġregulations": 6707,
      "Ġdemonstrated": 6708,
      "gon": 6709,
      "onym": 6710,
      "ato": 6711,
      "Ġemerging": 6712,
      "Le": 6713,
      "acific": 6714,
      "Ġsections": 6715,
      "Ġastron": 6716,
      "Ġbonds": 6717,
      "Ġlatter": 6718,
      "Ġcoordinates": 6719,
      "âĦ¢": 6720,
      "Ġancest": 6721,
      "ĠPlease": 6722,
      "Ġwisdom": 6723,
      "500": 6724,
      "ĠJun": 6725,
      "Ġemployed": 6726,
      "Ġaccounts": 6727,
      "ĠCare": 6728,
      "ĠMem": 6729,
      "Ġmuscles": 6730,
      "Ġserver": 6731,
      "http": 6732,
      "cers": 6733,
      "ptic": 6734,
      "Ġgirls": 6735,
      "Ġplayer": 6736,
      "ĠGood": 6737,
      "ĠSk": 6738,
      "ĠMil": 6739,
      "Ġkilled": 6740,
      "Ġcup": 6741,
      "ĠBer": 6742,
      "Ġlatest": 6743,
      "Ġsick": 6744,
      "Ġlocations": 6745,
      "riculum": 6746,
      "Ġbrown": 6747,
      "Introduction": 6748,
      "Ġkm": 6749,
      "Ġinterpretation": 6750,
      "Ġachieved": 6751,
      "var": 6752,
      "Of": 6753,
      "Ġpaid": 6754,
      "Ġrecognized": 6755,
      "Ġsurfaces": 6756,
      "Ġsuccessfully": 6757,
      "Ġwonderful": 6758,
      "Act": 6759,
      "ĠSen": 6760,
      "Ġtransportation": 6761,
      "Ġreplied": 6762,
      "ĠGovernment": 6763,
      "Ġrely": 6764,
      "Ġsmile": 6765,
      "ĠAP": 6766,
      "Ġske": 6767,
      "Ġtooth": 6768,
      "Ġbinary": 6769,
      "Ġfacing": 6770,
      "Ġlung": 6771,
      "Ġstages": 6772,
      "Ġobjective": 6773,
      "abil": 6774,
      "Ġneural": 6775,
      "agnetic": 6776,
      "Ġexplo": 6777,
      "ums": 6778,
      "opic": 6779,
      "Ġvertical": 6780,
      "(-": 6781,
      "gr": 6782,
      "Ġtraffic": 6783,
      "ĠCath": 6784,
      "Ġid": 6785,
      "amily": 6786,
      "Ġcorner": 6787,
      "Ġtwice": 6788,
      "Ġpond": 6789,
      "Ġcontributions": 6790,
      "Ġtested": 6791,
      "Ġinsight": 6792,
      "Ġdistributed": 6793,
      "ĠMuseum": 6794,
      "Ġtrouble": 6795,
      "Ġemployees": 6796,
      "verty": 6797,
      "char": 6798,
      "Ġboat": 6799,
      "Ġuns": 6800,
      "inet": 6801,
      "ague": 6802,
      "ontal": 6803,
      "Ġunless": 6804,
      "ĠMount": 6805,
      "Ġharmful": 6806,
      "ĠCurrent": 6807,
      "Ġpoverty": 6808,
      "Ġdrawn": 6809,
      "Ġassistance": 6810,
      "Ġguarant": 6811,
      "aved": 6812,
      "Ġinflamm": 6813,
      "world": 6814,
      "ĠDoes": 6815,
      "][": 6816,
      "Ġcreatures": 6817,
      "ĠDiv": 6818,
      "Ġpassion": 6819,
      "Åĵ": 6820,
      "ĠTable": 6821,
      "Ġbranch": 6822,
      "ĠTex": 6823,
      "Ġitem": 6824,
      "Ġfeels": 6825,
      "ilibrium": 6826,
      "Ġment": 6827,
      "Ġscre": 6828,
      "Ġhorm": 6829,
      "Ġmultip": 6830,
      "Ġalongside": 6831,
      "Ġnecessarily": 6832,
      "Ġarbit": 6833,
      "Ġunexpected": 6834,
      "Ġgrade": 6835,
      "Ġleadership": 6836,
      "''": 6837,
      "ĠScient": 6838,
      "ĠOld": 6839,
      "add": 6840,
      "Ġbutton": 6841,
      "circ": 6842,
      "ĠCD": 6843,
      "According": 6844,
      "Ġcart": 6845,
      "Ġfant": 6846,
      "ĠBet": 6847,
      "zed": 6848,
      "ĠReal": 6849,
      "Ġproducing": 6850,
      "Ġflew": 6851,
      "Ġexpectations": 6852,
      "========": 6853,
      "Ġdeeply": 6854,
      "zon": 6855,
      "Ġpapers": 6856,
      "estions": 6857,
      "Ġdepict": 6858,
      "Ġleader": 6859,
      "Ġtransmission": 6860,
      "Ġmoves": 6861,
      "Ġmoist": 6862,
      "Ġheritage": 6863,
      "Ġshad": 6864,
      "OC": 6865,
      "ref": 6866,
      "Ġinject": 6867,
      "leq": 6868,
      "ashion": 6869,
      "function": 6870,
      "race": 6871,
      "Ġeveryday": 6872,
      "ĠService": 6873,
      "ĠStudies": 6874,
      "!!": 6875,
      "ĠQue": 6876,
      "Ġbudget": 6877,
      "Ġmaxim": 6878,
      "ĠMexico": 6879,
      "xture": 6880,
      "Ġnarrow": 6881,
      "ĠWhite": 6882,
      "Ġstruggle": 6883,
      "Ġthrow": 6884,
      "Ġdelicious": 6885,
      "Ġaudience": 6886,
      "Ġorganized": 6887,
      "such": 6888,
      "ffee": 6889,
      "Ġadequ": 6890,
      "riting": 6891,
      "Ġspark": 6892,
      "Ġroutine": 6893,
      "ĠCivil": 6894,
      "eal": 6895,
      "Ġath": 6896,
      "fit": 6897,
      "ĠEnc": 6898,
      "utation": 6899,
      "ĠAmong": 6900,
      "ĠExample": 6901,
      "enses": 6902,
      "ĠRad": 6903,
      "Ġgrew": 6904,
      "Ġchemicals": 6905,
      "Ġnutrients": 6906,
      "Ġintervention": 6907,
      "agers": 6908,
      "Ġcustomers": 6909,
      "Ġedges": 6910,
      "ĠIr": 6911,
      "Ġque": 6912,
      "ĠCur": 6913,
      "ishes": 6914,
      "Ġtraum": 6915,
      "van": 6916,
      "Ġgrown": 6917,
      "Ġportion": 6918,
      "Ġopinion": 6919,
      "Ġraise": 6920,
      "dfrac": 6921,
      "Ġvehicles": 6922,
      "Ġwest": 6923,
      "Ġabstract": 6924,
      "ĠLook": 6925,
      "ĠPub": 6926,
      "Ġimplemented": 6927,
      "ented": 6928,
      "Ġmaintenance": 6929,
      "gu": 6930,
      "FT": 6931,
      "delta": 6932,
      "ini": 6933,
      "Ġstands": 6934,
      "Ã¼": 6935,
      "Ġherself": 6936,
      "Ġvert": 6937,
      "Ġnumerical": 6938,
      "Ġpolice": 6939,
      "ĠWindows": 6940,
      "Ġpairs": 6941,
      "Ġattacks": 6942,
      "ĠBre": 6943,
      "Ġafford": 6944,
      "roke": 6945,
      "ensus": 6946,
      "Ġembed": 6947,
      "Through": 6948,
      "Ġ2001": 6949,
      "Ġsurvival": 6950,
      "Ġmobile": 6951,
      "ĠCourt": 6952,
      "Ġreform": 6953,
      "Ġhaz": 6954,
      "Ġaer": 6955,
      "ushed": 6956,
      "Ġtechnological": 6957,
      "ĠSaf": 6958,
      "Ġcris": 6959,
      "ĠHome": 6960,
      "Ġweap": 6961,
      "Ġpartial": 6962,
      "Ġcamera": 6963,
      "Ġnodes": 6964,
      "Ġ<-": 6965,
      "hesis": 6966,
      "Ġpump": 6967,
      "Ġraw": 6968,
      "Ġobst": 6969,
      "Ġcards": 6970,
      "Ġhur": 6971,
      "Although": 6972,
      "inder": 6973,
      "Ġthri": 6974,
      "ditional": 6975,
      "Ġhence": 6976,
      "Ġaccepted": 6977,
      "Ġconvert": 6978,
      "Ġstyles": 6979,
      "Ġhug": 6980,
      "rot": 6981,
      "Ġproduces": 6982,
      "Thank": 6983,
      "83": 6984,
      "Ġ2021": 6985,
      "Ġmouse": 6986,
      "Ġthereby": 6987,
      "Ġcream": 6988,
      "Ġtheoretical": 6989,
      "ĠNature": 6990,
      "ĠProp": 6991,
      "Ġparticipate": 6992,
      "Ġsentence": 6993,
      "Ġsed": 6994,
      "Ġvitamin": 6995,
      "Ġsole": 6996,
      "ĠWelcome": 6997,
      "orter": 6998,
      "Ġsusp": 6999,
      "Ġartificial": 7000,
      "Ġvac": 7001,
      "Ġstated": 7002,
      "ĠMain": 7003,
      "ourse": 7004,
      "App": 7005,
      "Ġnorthern": 7006,
      "ello": 7007,
      "ĠMiss": 7008,
      "ĠSmith": 7009,
      "ipal": 7010,
      "ĠÃĹ": 7011,
      "IP": 7012,
      "Ġbag": 7013,
      "Ġagricultural": 7014,
      "Ġsimulation": 7015,
      "Ġassemb": 7016,
      "Ġquadr": 7017,
      "Ġsatell": 7018,
      "Ġmagical": 7019,
      "file": 7020,
      "ads": 7021,
      "Ġessay": 7022,
      "Ġcomfortable": 7023,
      "ĠMedical": 7024,
      "}+": 7025,
      "Ġdoctors": 7026,
      "emb": 7027,
      "ĠAlice": 7028,
      "Ġhorse": 7029,
      "ĠSl": 7030,
      "ĠType": 7031,
      "Ġperman": 7032,
      "oves": 7033,
      "Ġstem": 7034,
      "pm": 7035,
      "fra": 7036,
      "ĠProv": 7037,
      "ĠMuslim": 7038,
      "Ġagreement": 7039,
      "Ġhundreds": 7040,
      ")/": 7041,
      "Ġautomatically": 7042,
      "Ġderivative": 7043,
      "osph": 7044,
      "Ġneuro": 7045,
      "Look": 7046,
      "Ġabund": 7047,
      "Ġencounter": 7048,
      "esh": 7049,
      "Ġaccomp": 7050,
      "IG": 7051,
      "Ġ2002": 7052,
      "Ġkill": 7053,
      "Ġdomestic": 7054,
      "Ġimper": 7055,
      "Ġexamination": 7056,
      "Ġtrip": 7057,
      "OL": 7058,
      "Ġslide": 7059,
      "Ġion": 7060,
      "ĠJer": 7061,
      "Ġwondered": 7062,
      "doi": 7063,
      "ĠPsych": 7064,
      "date": 7065,
      "venue": 7066,
      "Ġgreatest": 7067,
      "Ġboost": 7068,
      "ĠTw": 7069,
      "Ġregul": 7070,
      "Ġsouthern": 7071,
      "Ġgravity": 7072,
      "Ġpossibly": 7073,
      "Ġinherent": 7074,
      "Ġphilosophy": 7075,
      "hist": 7076,
      "Ġgun": 7077,
      "plex": 7078,
      "Ġrevealed": 7079,
      "Ġstatements": 7080,
      "Ġperp": 7081,
      "Ġsizes": 7082,
      "Fig": 7083,
      "uthor": 7084,
      "ĠRussian": 7085,
      "Ġbrings": 7086,
      "ighter": 7087,
      "ĠLou": 7088,
      "ĠAnsw": 7089,
      "ĠJews": 7090,
      "Ġtoxic": 7091,
      "lib": 7092,
      "taining": 7093,
      "Ġlargely": 7094,
      "uation": 7095,
      "Ġinverse": 7096,
      "ude": 7097,
      "Ġgalax": 7098,
      "Ġinitially": 7099,
      "Ġfacilities": 7100,
      "Ġreject": 7101,
      "ndrome": 7102,
      "ults": 7103,
      "Ġinterface": 7104,
      "81": 7105,
      "Ġinterpre": 7106,
      "gent": 7107,
      "mega": 7108,
      "Ġintricate": 7109,
      "Ġinfections": 7110,
      "Ġtap": 7111,
      "rho": 7112,
      "Not": 7113,
      "Ġfif": 7114,
      "BN": 7115,
      "EL": 7116,
      "Ġstatistical": 7117,
      "Ġconstraints": 7118,
      "Ġscal": 7119,
      "ĠRights": 7120,
      "gamma": 7121,
      "Ġmagic": 7122,
      "Ġdelay": 7123,
      "ĠLong": 7124,
      "Ġconversation": 7125,
      "ĠUnder": 7126,
      "isk": 7127,
      "Ġdealing": 7128,
      "rd": 7129,
      "Ġkitchen": 7130,
      "Ġble": 7131,
      "OM": 7132,
      "Ġbread": 7133,
      "Ġpossibility": 7134,
      "Ġwise": 7135,
      "93": 7136,
      "eless": 7137,
      "Ġends": 7138,
      "Ġmoments": 7139,
      "Ġchannel": 7140,
      "Ġmoon": 7141,
      "ĠAtl": 7142,
      "Ġseconds": 7143,
      "ĠCa": 7144,
      "ĠHIV": 7145,
      "Ġsimultaneously": 7146,
      "Ġlisted": 7147,
      "Ġconcerned": 7148,
      "Ġreliable": 7149,
      "Ġreduces": 7150,
      "Ġwatched": 7151,
      "Ġmetab": 7152,
      "Ġsav": 7153,
      "throp": 7154,
      "ĠSpr": 7155,
      "Ġmarkets": 7156,
      "Ġcritic": 7157,
      "Ġobserve": 7158,
      "reshold": 7159,
      "Ġcharacterized": 7160,
      "Ġordinary": 7161,
      "ictionary": 7162,
      "Ġlistening": 7163,
      "ĠGlobal": 7164,
      "olds": 7165,
      "Ġrank": 7166,
      "Ġrecy": 7167,
      "umes": 7168,
      "Ġwhatever": 7169,
      "Ġliterary": 7170,
      "Ġrepresenting": 7171,
      "ĠList": 7172,
      "fficients": 7173,
      "sequently": 7174,
      "ux": 7175,
      "Ġrural": 7176,
      "Ġprem": 7177,
      "Ġsuc": 7178,
      "Ġprotected": 7179,
      "ĠBritain": 7180,
      "Ġnone": 7181,
      "May": 7182,
      "Ġexplains": 7183,
      "Ġvillage": 7184,
      "Ġmarginal": 7185,
      "Ġfoss": 7186,
      "idation": 7187,
      "ĠHappy": 7188,
      "Ġsummary": 7189,
      "Ġconven": 7190,
      "Ġplus": 7191,
      "ĠMo": 7192,
      "essions": 7193,
      "Ġdivision": 7194,
      "Ġpercentage": 7195,
      "Ġwitness": 7196,
      "?âĢĿ": 7197,
      "ĠOF": 7198,
      "ĠPet": 7199,
      "ĠMedicine": 7200,
      "Ġappoint": 7201,
      "Ġenthus": 7202,
      "Ġcommitted": 7203,
      "abs": 7204,
      "Ġeast": 7205,
      "Ġattached": 7206,
      "Ġdiagnosis": 7207,
      "Ġadvantages": 7208,
      "Ġshiny": 7209,
      "Key": 7210,
      "Ġdrinking": 7211,
      "ĠPDF": 7212,
      "ĠShow": 7213,
      "edge": 7214,
      "ĠRob": 7215,
      "ctic": 7216,
      "ĠFoundation": 7217,
      "Ġdecay": 7218,
      "istan": 7219,
      "Ġturning": 7220,
      "Ġtransp": 7221,
      "Ġcir": 7222,
      "Ġamid": 7223,
      "Ġsees": 7224,
      "Ġphotos": 7225,
      "Sim": 7226,
      "Ġemerged": 7227,
      "Ġpossibilities": 7228,
      "Ġagriculture": 7229,
      "weight": 7230,
      "irty": 7231,
      "ĠPacific": 7232,
      "Ġsocieties": 7233,
      "ĠOh": 7234,
      "ussian": 7235,
      "Ġunus": 7236,
      "ĊĠĠĠĠĠĠĠ": 7237,
      "ĠTogether": 7238,
      "Ġ1990": 7239,
      "Rem": 7240,
      "Ġban": 7241,
      "Ġoperators": 7242,
      "ĠBal": 7243,
      "Ġvolunte": 7244,
      "Ġcalc": 7245,
      "Ġargue": 7246,
      "Ġinsurance": 7247,
      "ĠAcc": 7248,
      "ĠBefore": 7249,
      "Ġregardless": 7250,
      "Ġtoler": 7251,
      "Ġdust": 7252,
      "ĠAp": 7253,
      "opt": 7254,
      "Ġobservation": 7255,
      "fig": 7256,
      "Ġmodule": 7257,
      "Ed": 7258,
      "Ġpainting": 7259,
      "Ġneur": 7260,
      "ĠTV": 7261,
      "ĠOrig": 7262,
      "Ġfighting": 7263,
      "Ġhappening": 7264,
      "Ġemergency": 7265,
      "Ġflower": 7266,
      "Ġinches": 7267,
      "ĠFranc": 7268,
      "Ġhabits": 7269,
      "Ġmyster": 7270,
      "iki": 7271,
      "Ġusual": 7272,
      "Ġenabling": 7273,
      "ĠImp": 7274,
      "DP": 7275,
      "Ġ500": 7276,
      "ĠSign": 7277,
      "Ġfabric": 7278,
      "ĠCP": 7279,
      "Ġmyself": 7280,
      "estyle": 7281,
      "Ġcoun": 7282,
      "Ġinequality": 7283,
      "Ġpsychological": 7284,
      "Ġcub": 7285,
      "Ġkil": 7286,
      "Ġpresentation": 7287,
      "Ġcompounds": 7288,
      "Ġrhy": 7289,
      "Ġspatial": 7290,
      "Ġconcerning": 7291,
      "AG": 7292,
      "Mod": 7293,
      "ĠBible": 7294,
      "Ġ63": 7295,
      "roc": 7296,
      "Ġstreet": 7297,
      "ãĢĤ": 7298,
      "Ġquiet": 7299,
      "ĠVari": 7300,
      "ican": 7301,
      "erior": 7302,
      "ĠRussia": 7303,
      "anda": 7304,
      "asts": 7305,
      "under": 7306,
      "Ġneighborhood": 7307,
      "Ġleaf": 7308,
      "Ġmir": 7309,
      "Ġfocuses": 7310,
      "etime": 7311,
      "Ġcrim": 7312,
      "Ġhabitat": 7313,
      "82": 7314,
      "Ġmonitor": 7315,
      "Ġpresents": 7316,
      "ĠMag": 7317,
      "rem": 7318,
      "ĠTer": 7319,
      "ĠQuestion": 7320,
      "disc": 7321,
      "UN": 7322,
      "Ġsen": 7323,
      "import": 7324,
      "ship": 7325,
      "96": 7326,
      "Ġorbit": 7327,
      "cling": 7328,
      "ascular": 7329,
      "ĠTreat": 7330,
      "Ġgent": 7331,
      "Ġpropos": 7332,
      "ĠPeter": 7333,
      "Ġscheme": 7334,
      "Ġorb": 7335,
      "Ġdefinite": 7336,
      "Americ": 7337,
      "holders": 7338,
      "asive": 7339,
      "Ġmatrices": 7340,
      "hematic": 7341,
      "Ġdiscrimination": 7342,
      "ĠSection": 7343,
      "John": 7344,
      "'.": 7345,
      "Ġfaces": 7346,
      "Ġcontained": 7347,
      ",,": 7348,
      "Ġcrops": 7349,
      "ician": 7350,
      "actions": 7351,
      "sts": 7352,
      "Ġprofessor": 7353,
      "Ġ==": 7354,
      "Ġrequest": 7355,
      "ĠWomen": 7356,
      "Ġnormally": 7357,
      "ocratic": 7358,
      "Ġintellectual": 7359,
      "organ": 7360,
      "Ġstructural": 7361,
      "Ġdiscussing": 7362,
      "Next": 7363,
      "Ġextension": 7364,
      "atively": 7365,
      "ocked": 7366,
      "Ġprofound": 7367,
      "Ġcardi": 7368,
      "Ġcolumns": 7369,
      "Ġtor": 7370,
      "coming": 7371,
      "Ġquantity": 7372,
      "fulness": 7373,
      "Ġvariation": 7374,
      "Ġattend": 7375,
      "Ġminimal": 7376,
      "ĠMa": 7377,
      "Ġembark": 7378,
      "ĠIndigenous": 7379,
      "Ġgap": 7380,
      "IL": 7381,
      "oting": 7382,
      "asy": 7383,
      "Ġoral": 7384,
      "Ġanymore": 7385,
      "Ġupdate": 7386,
      "Ġvan": 7387,
      ":\\": 7388,
      "Ġanalys": 7389,
      "Ġdependent": 7390,
      "ena": 7391,
      "Ġbehaviour": 7392,
      "ĠWorks": 7393,
      "^\\": 7394,
      "Ġconsideration": 7395,
      "Ġconsumers": 7396,
      "Ġinstalled": 7397,
      "ĠEnvironmental": 7398,
      "Ġaccum": 7399,
      "vol": 7400,
      "Ġhealing": 7401,
      "Ġminimize": 7402,
      "Ġ]": 7403,
      "uality": 7404,
      "Ġmarine": 7405,
      "Go": 7406,
      "mas": 7407,
      "Ġfewer": 7408,
      "igital": 7409,
      "ĠOx": 7410,
      "Ġremarkable": 7411,
      "west": 7412,
      "ĠText": 7413,
      "Ġfav": 7414,
      "Ġconcrete": 7415,
      "Ġpreferences": 7416,
      "Don": 7417,
      "Ġforth": 7418,
      "Ġthank": 7419,
      "eness": 7420,
      "Ġimmun": 7421,
      "pled": 7422,
      "Ġsuffering": 7423,
      "97": 7424,
      "Ġcrow": 7425,
      "Ġhouses": 7426,
      "Ġdialogue": 7427,
      "Ġcompound": 7428,
      "During": 7429,
      "Ġinstrument": 7430,
      "ĠTexas": 7431,
      "cons": 7432,
      "Ġfunding": 7433,
      "Ġmanufacturing": 7434,
      "illy": 7435,
      "ivery": 7436,
      "ĠEffect": 7437,
      "words": 7438,
      "Ġpil": 7439,
      "Ġanalog": 7440,
      "ĠColl": 7441,
      "SP": 7442,
      "ĠOnly": 7443,
      "ependent": 7444,
      "Äģ": 7445,
      "ĠDifferent": 7446,
      "zen": 7447,
      "Ġsecondary": 7448,
      "Ġbath": 7449,
      "Ġokay": 7450,
      "just": 7451,
      "Ġcrisis": 7452,
      "ilation": 7453,
      "Ġcorrelation": 7454,
      "Ġalike": 7455,
      "ĠDan": 7456,
      "ĠNative": 7457,
      "Ġnodded": 7458,
      "Ġswitch": 7459,
      "Ġbattery": 7460,
      "ĠLucy": 7461,
      "inition": 7462,
      "ĠJo": 7463,
      "Ġdiagram": 7464,
      "oir": 7465,
      "ĠOper": 7466,
      "Ġmountain": 7467,
      "ithm": 7468,
      "Ġwriters": 7469,
      "nected": 7470,
      "Ġaccessible": 7471,
      "tra": 7472,
      "Ġcommitment": 7473,
      "2010": 7474,
      "]:": 7475,
      "axis": 7476,
      "Ġequality": 7477,
      "brid": 7478,
      "Ġresidents": 7479,
      "ĠRobert": 7480,
      ".'": 7481,
      "Ġdiss": 7482,
      "((": 7483,
      "ĠĠĠĠĠ": 7484,
      "Ġarts": 7485,
      "ventions": 7486,
      "Ġencourages": 7487,
      "Ġpersons": 7488,
      "Par": 7489,
      "Ġinstances": 7490,
      "Ġinitiatives": 7491,
      "Bl": 7492,
      "Ġscene": 7493,
      "Ġwildlife": 7494,
      "mentation": 7495,
      "Ġcriteria": 7496,
      "Ġchick": 7497,
      "Ġsubsequent": 7498,
      "Ġexplored": 7499,
      "Ġwife": 7500,
      "ĠNews": 7501,
      "AA": 7502,
      "Ġmuseum": 7503,
      "Ġconserv": 7504,
      "othe": 7505,
      "ĠGold": 7506,
      "Ġsequences": 7507,
      "Ġages": 7508,
      "Ġbio": 7509,
      "real": 7510,
      "ĠWhere": 7511,
      "ota": 7512,
      "nings": 7513,
      "Ġpropag": 7514,
      "lers": 7515,
      "ye": 7516,
      ")$.": 7517,
      "ĠTop": 7518,
      "Ġteams": 7519,
      "hu": 7520,
      "Ġwatching": 7521,
      "Ġfro": 7522,
      "Ġnotion": 7523,
      "ĠTake": 7524,
      "Ġprev": 7525,
      "Ġrail": 7526,
      "Ġadopted": 7527,
      "Ġowner": 7528,
      "Ġdut": 7529,
      "Ġperforming": 7530,
      "Ġthermal": 7531,
      "ĠThose": 7532,
      "ĠYet": 7533,
      "Ġcoffee": 7534,
      "ĠAst": 7535,
      "Ġfacilitate": 7536,
      "*}": 7537,
      "Ġreplaced": 7538,
      "Ġpassing": 7539,
      "Ġfu": 7540,
      "Ġconve": 7541,
      "Most": 7542,
      "Ġfellow": 7543,
      "Ġenjoyed": 7544,
      "bles": 7545,
      "ocracy": 7546,
      "Ġrealm": 7547,
      "Ġfocusing": 7548,
      "Ġsucceed": 7549,
      "Ġnegot": 7550,
      "Ġoutcome": 7551,
      "phant": 7552,
      "äº": 7553,
      "Ġsharp": 7554,
      "Ġcompr": 7555,
      "Ġaffecting": 7556,
      "arks": 7557,
      "ircraft": 7558,
      "Ġintegrated": 7559,
      "ĠYes": 7560,
      "Ġ36": 7561,
      "Ġrequiring": 7562,
      "Ġstake": 7563,
      "ĠSea": 7564,
      "ĠAbout": 7565,
      "orrect": 7566,
      "ĠLibrary": 7567,
      "Ġlearners": 7568,
      "Ġversions": 7569,
      "Ġcourses": 7570,
      "Ġconversations": 7571,
      "Ġtro": 7572,
      ")-": 7573,
      "Ġcompact": 7574,
      "Ġdiameter": 7575,
      "Ġproved": 7576,
      "ĠNor": 7577,
      "Ġconfiguration": 7578,
      "agues": 7579,
      "uce": 7580,
      "Ġworse": 7581,
      "elihood": 7582,
      "ĠMont": 7583,
      "MAT": 7584,
      "Ġlibraries": 7585,
      "Ġflag": 7586,
      "Just": 7587,
      "apped": 7588,
      "Ġcoefficients": 7589,
      "Ġ300": 7590,
      "Ġreveal": 7591,
      "olit": 7592,
      "Ġvariations": 7593,
      "she": 7594,
      "Ġcalculations": 7595,
      "ĠLog": 7596,
      "Ġsoldiers": 7597,
      "Ġmodified": 7598,
      "Ġinstitution": 7599,
      "ĠEth": 7600,
      "Ġmagnitude": 7601,
      "Ġbridge": 7602,
      "Ġequilibrium": 7603,
      "Ġuniversal": 7604,
      "ĠProcess": 7605,
      "document": 7606,
      "Ġeld": 7607,
      "sis": 7608,
      "Ġpresident": 7609,
      "vals": 7610,
      "anches": 7611,
      "Ġinstruments": 7612,
      "unctions": 7613,
      "ierarch": 7614,
      "Or": 7615,
      "called": 7616,
      "ĠSing": 7617,
      "Ġoverw": 7618,
      "Ġrealize": 7619,
      "Ġstrongly": 7620,
      "ĠVirgin": 7621,
      "Ġforests": 7622,
      "Ġspending": 7623,
      "ĠNASA": 7624,
      "ĠIP": 7625,
      "soft": 7626,
      "Ġdataset": 7627,
      "indu": 7628,
      "Ġcolour": 7629,
      "Ġphenomenon": 7630,
      "Ġdifficulty": 7631,
      "Ġreader": 7632,
      "Ġconstructed": 7633,
      "Ġoptimization": 7634,
      "Ġmeal": 7635,
      "Ġfailed": 7636,
      "Ġpreparation": 7637,
      "Ġassumptions": 7638,
      "ĠTHE": 7639,
      "Ġcoefficient": 7640,
      "epsilon": 7641,
      "ĠÐ": 7642,
      "Ġ//": 7643,
      "Ġconvey": 7644,
      "ector": 7645,
      "ĠDise": 7646,
      "Ġallerg": 7647,
      "Ġrocks": 7648,
      "html": 7649,
      ")+": 7650,
      "Ġnu": 7651,
      "Ġmedications": 7652,
      "Ġow": 7653,
      "Ġcalculation": 7654,
      "Ġsod": 7655,
      "Ġdifferently": 7656,
      "Ġlaun": 7657,
      "Ġlaugh": 7658,
      "pat": 7659,
      "ĠJose": 7660,
      "ĠFollow": 7661,
      "Ġconflicts": 7662,
      "94": 7663,
      "XX": 7664,
      "Ġextensive": 7665,
      "alities": 7666,
      "uous": 7667,
      "ĠModern": 7668,
      "ras": 7669,
      "Ġagencies": 7670,
      "ĠHall": 7671,
      "Ġpromise": 7672,
      "ften": 7673,
      "2012": 7674,
      "Ġindustries": 7675,
      "icular": 7676,
      "Ġmomentum": 7677,
      "aus": 7678,
      "Ġartistic": 7679,
      "Ġdim": 7680,
      "Ġsupplies": 7681,
      "Ġtele": 7682,
      "Ġadministr": 7683,
      "Ġsales": 7684,
      "Ġinhab": 7685,
      "Ġprevention": 7686,
      "ĠAccess": 7687,
      "usiness": 7688,
      "Ġserving": 7689,
      "2013": 7690,
      "operation": 7691,
      "Ġlect": 7692,
      "Ġtrend": 7693,
      "Ġofficials": 7694,
      "Ġinstant": 7695,
      "RC": 7696,
      "Ġcompassion": 7697,
      "Ġheavily": 7698,
      "oric": 7699,
      "Ġmigr": 7700,
      "map": 7701,
      "phone": 7702,
      "Ġsitting": 7703,
      "Ġsoul": 7704,
      "unning": 7705,
      "Ġessentially": 7706,
      "Ġinvestigation": 7707,
      "Ġmixture": 7708,
      "struction": 7709,
      "Ġidentifying": 7710,
      "rovers": 7711,
      "Ġodd": 7712,
      "Ġinjuries": 7713,
      "Ġagents": 7714,
      "Ġprecision": 7715,
      "Jo": 7716,
      "fe": 7717,
      "Ġtrained": 7718,
      "Ġintegers": 7719,
      "Ġmechanical": 7720,
      "Ġmeals": 7721,
      "Ġtruck": 7722,
      "Ġinvestigate": 7723,
      "ĠBrown": 7724,
      "Ġthreats": 7725,
      "Ġtables": 7726,
      "width": 7727,
      "Ġparticipation": 7728,
      "Ġequally": 7729,
      "Ġefficiently": 7730,
      "Ġanalyzing": 7731,
      "Ġpreserving": 7732,
      "Ġintensity": 7733,
      "ĠLanguage": 7734,
      "kes": 7735,
      "ĠTem": 7736,
      "ĠLast": 7737,
      "aren": 7738,
      "Ġnotable": 7739,
      "Data": 7740,
      "2017": 7741,
      "Ġcul": 7742,
      "Ġreward": 7743,
      "Ġasp": 7744,
      "chers": 7745,
      "Ġsupposed": 7746,
      "ayer": 7747,
      "aks": 7748,
      "fill": 7749,
      "isy": 7750,
      "Ġconfir": 7751,
      "Ġdepos": 7752,
      "Ġsurve": 7753,
      "Ġorth": 7754,
      "Ġeverywhere": 7755,
      "Ġscenarios": 7756,
      "ĠCheck": 7757,
      "Ġcaptiv": 7758,
      "Ġneither": 7759,
      "Ġclothes": 7760,
      "ĠCommission": 7761,
      "Col": 7762,
      "æľ": 7763,
      "Stud": 7764,
      "values": 7765,
      "ĠSuddenly": 7766,
      "Ġpaths": 7767,
      "}=\\": 7768,
      "HO": 7769,
      "Ġharvest": 7770,
      "umps": 7771,
      "Ġdaughter": 7772,
      "ita": 7773,
      "Ġforming": 7774,
      "icy": 7775,
      "hav": 7776,
      "Ġgreatly": 7777,
      "iology": 7778,
      "ĠJane": 7779,
      "Ġ68": 7780,
      "Ġsplit": 7781,
      "ĠNumber": 7782,
      "Ġneck": 7783,
      "Ġsteel": 7784,
      "ĠTor": 7785,
      "rical": 7786,
      "Ġcov": 7787,
      "ĠSov": 7788,
      "ln": 7789,
      "ĠSara": 7790,
      "plete": 7791,
      "Ġsheet": 7792,
      "oto": 7793,
      "Ġiter": 7794,
      "Ġfairly": 7795,
      "Ġalter": 7796,
      "Ġpreserve": 7797,
      "Ġvaccine": 7798,
      "iations": 7799,
      "Ġgraphs": 7800,
      "Ġcaught": 7801,
      "bin": 7802,
      "ĠSciences": 7803,
      "Ġdemands": 7804,
      "inction": 7805,
      "ĠChall": 7806,
      "Ġarmy": 7807,
      "Ġexceed": 7808,
      "Ġtight": 7809,
      "Ġreflection": 7810,
      "Ġengaged": 7811,
      "Ġflour": 7812,
      "Ġethnic": 7813,
      "Ġconj": 7814,
      "Ġdecor": 7815,
      "Ġstead": 7816,
      "ione": 7817,
      "Ġmitig": 7818,
      "Ġfunds": 7819,
      "ĠCharles": 7820,
      "idity": 7821,
      "EP": 7822,
      "this": 7823,
      "Ġputting": 7824,
      "Ġcoordinate": 7825,
      "Ġminds": 7826,
      "Ġsight": 7827,
      "vin": 7828,
      "Ġcontrols": 7829,
      "Ġsuddenly": 7830,
      "ada": 7831,
      "Ġhypothesis": 7832,
      "ropical": 7833,
      "CT": 7834,
      "Ã³": 7835,
      "Ġdesire": 7836,
      "Ġmetric": 7837,
      "ls": 7838,
      "Ġflight": 7839,
      "hor": 7840,
      "âĢĻ.": 7841,
      "heric": 7842,
      "rame": 7843,
      "lets": 7844,
      "Ġliver": 7845,
      "Ġhumanity": 7846,
      "\":": 7847,
      "Ġproportion": 7848,
      "Ġfiber": 7849,
      "Ġtea": 7850,
      "Ġvoc": 7851,
      "Ġlit": 7852,
      "Cons": 7853,
      "Ġasym": 7854,
      "Ġoriginally": 7855,
      "Ġsustainability": 7856,
      "ella": 7857,
      "nu": 7858,
      "Ġindependence": 7859,
      "ENT": 7860,
      "Ġconnecting": 7861,
      "Ġcond": 7862,
      "ano": 7863,
      "ĠEnd": 7864,
      "Ġprison": 7865,
      "Per": 7866,
      "ĠJud": 7867,
      "lli": 7868,
      "Ġcurriculum": 7869,
      "opl": 7870,
      "ĠCatholic": 7871,
      "Ġsan": 7872,
      "Ġcorrel": 7873,
      "ĠAppl": 7874,
      "scill": 7875,
      "Ġflying": 7876,
      "Ġcapabilities": 7877,
      ".:": 7878,
      "ĠLand": 7879,
      "Ġaims": 7880,
      "ĠGrand": 7881,
      "Sub": 7882,
      "Ġmyst": 7883,
      "Ġlimitations": 7884,
      "tau": 7885,
      "Ġhandling": 7886,
      "Ġsought": 7887,
      "Ġbarriers": 7888,
      "Ġscenario": 7889,
      "ĠItal": 7890,
      "Ġimplies": 7891,
      "ĠBro": 7892,
      "Ġembracing": 7893,
      "Ġfashion": 7894,
      "Ġoperate": 7895,
      "opes": 7896,
      "Ġnorms": 7897,
      "ĠCanadian": 7898,
      "eut": 7899,
      "Ġgall": 7900,
      "ĠEngineering": 7901,
      "Ġ33": 7902,
      "rat": 7903,
      "Ġbeings": 7904,
      "Ġdevelopments": 7905,
      "Ġwilling": 7906,
      "ĠVer": 7907,
      "MP": 7908,
      "ĠFlor": 7909,
      "ĠUSA": 7910,
      "acles": 7911,
      "ĠNav": 7912,
      "92": 7913,
      "unc": 7914,
      "Ġcontributing": 7915,
      "Ġsupplement": 7916,
      "Ġrabbit": 7917,
      "Ġ66": 7918,
      "Ġmeasuring": 7919,
      "Ġarc": 7920,
      "acks": 7921,
      "Ġwarming": 7922,
      "Ġyounger": 7923,
      "iating": 7924,
      "oral": 7925,
      "Ġconsumer": 7926,
      "ĠPractice": 7927,
      "cho": 7928,
      "craft": 7929,
      "Ġpracticing": 7930,
      "Ġbeneficial": 7931,
      "ĠMichael": 7932,
      "oving": 7933,
      "Ġgently": 7934,
      "Ġextend": 7935,
      "uts": 7936,
      "2015": 7937,
      "Ġclimb": 7938,
      "Ġmood": 7939,
      "Ġmerely": 7940,
      "Ġmovie": 7941,
      "han": 7942,
      "Ġincorporate": 7943,
      "ĠStart": 7944,
      "Ġcharacteristic": 7945,
      "forcement": 7946,
      "Ġadministration": 7947,
      "ĠArmy": 7948,
      "ographical": 7949,
      "Ġorganisms": 7950,
      "ersion": 7951,
      "ĠHelp": 7952,
      "Ġflows": 7953,
      "ĠChange": 7954,
      "Ġwellbeing": 7955,
      "Ġartist": 7956,
      "Ġcenters": 7957,
      "ĠMill": 7958,
      "Ġmodeling": 7959,
      "Ġcircul": 7960,
      "ĠUt": 7961,
      "Your": 7962,
      "Ġhorizontal": 7963,
      "Ġzone": 7964,
      "Ġarise": 7965,
      "Ġsubstances": 7966,
      "ogene": 7967,
      "pread": 7968,
      "Ġvarying": 7969,
      "Ġtank": 7970,
      "Ġbones": 7971,
      "Ġjoined": 7972,
      "âĤ¬âĦ¢": 7973,
      "Ġprofit": 7974,
      "ĠWild": 7975,
      "Ġreferences": 7976,
      "Ġlegs": 7977,
      "Ġrotation": 7978,
      "Ġchannels": 7979,
      "Ġdelivery": 7980,
      "Ġblow": 7981,
      "lete": 7982,
      "Ġassets": 7983,
      "anning": 7984,
      "bridge": 7985,
      "case": 7986,
      "ĠApplications": 7987,
      "ĠCap": 7988,
      "ĠLabor": 7989,
      "Ġhaven": 7990,
      "Ġagency": 7991,
      "oken": 7992,
      "Her": 7993,
      "Ġbias": 7994,
      "Ġdoubt": 7995,
      "Ġflav": 7996,
      "Ġthreshold": 7997,
      "angular": 7998,
      "Ġworksh": 7999,
      "abul": 8000,
      "ommod": 8001,
      "mit": 8002,
      "onomic": 8003,
      "ipher": 8004,
      "ernel": 8005,
      "Ġmembr": 8006,
      "Ġimplementing": 8007,
      "ĠCompany": 8008,
      "telling": 8009,
      "Pr": 8010,
      "ĠLake": 8011,
      "Ġluck": 8012,
      "Ġsubstantial": 8013,
      "ortion": 8014,
      "}.": 8015,
      "Ġhat": 8016,
      "ĠUlt": 8017,
      "Ġdisturb": 8018,
      "Ġdirectory": 8019,
      "Ġlake": 8020,
      "athered": 8021,
      "Ġcorn": 8022,
      "ĠFre": 8023,
      "idespread": 8024,
      "ĠWhich": 8025,
      "Ġnest": 8026,
      "Ġintrig": 8027,
      "2011": 8028,
      "Ġamb": 8029,
      "Ġsensitivity": 8030,
      "ĠGiven": 8031,
      "Ġpreval": 8032,
      "ĠShare": 8033,
      "Read": 8034,
      "fly": 8035,
      "Ġrobot": 8036,
      "Ġdriver": 8037,
      "Ġexponential": 8038,
      "tr": 8039,
      "ĠProper": 8040,
      "Ġclassification": 8041,
      "ĠPrinc": 8042,
      "Ġvulnerable": 8043,
      "ĠConsequently": 8044,
      "eq": 8045,
      "Ġordered": 8046,
      "Other": 8047,
      "Ġatom": 8048,
      "rangle": 8049,
      "oples": 8050,
      "2016": 8051,
      "ĠHy": 8052,
      "Ġdebate": 8053,
      "Mom": 8054,
      "uals": 8055,
      "Ġassigned": 8056,
      "Ġsuffer": 8057,
      "PC": 8058,
      "Ġcash": 8059,
      "ĠHenry": 8060,
      "Ġwel": 8061,
      "agraph": 8062,
      "Ġ&=": 8063,
      "Ġchrom": 8064,
      "Ġemotion": 8065,
      "eries": 8066,
      "Ġfur": 8067,
      "ĠPri": 8068,
      "Ġsurprised": 8069,
      "Ġprotecting": 8070,
      "Ġregist": 8071,
      "Ġpin": 8072,
      "Ġoccasion": 8073,
      "des": 8074,
      "Ġaircraft": 8075,
      "Ġshout": 8076,
      "Ġaqu": 8077,
      "Ġdivide": 8078,
      "****": 8079,
      "ĠJac": 8080,
      "ordinary": 8081,
      "Def": 8082,
      "path": 8083,
      "ĠPoint": 8084,
      "Ġempower": 8085,
      "Ġgram": 8086,
      "ĠFrank": 8087,
      "ĠHence": 8088,
      "ĠLim": 8089,
      "dule": 8090,
      "Ġwestern": 8091,
      "Ġengineers": 8092,
      "ĠNatural": 8093,
      "Ġdecline": 8094,
      "Ġenhancing": 8095,
      "Ġathlet": 8096,
      "Ġclient": 8097,
      "Ġassumed": 8098,
      ".[": 8099,
      "Ġdescript": 8100,
      "ĠCy": 8101,
      "aped": 8102,
      "Ġmarriage": 8103,
      "Ġgentle": 8104,
      "Welcome": 8105,
      "Well": 8106,
      "Ġpointed": 8107,
      "pdf": 8108,
      "ĠPolic": 8109,
      "Ġsurvive": 8110,
      "group": 8111,
      "eterm": 8112,
      "Ġslope": 8113,
      "Ġdefic": 8114,
      "Ġunusual": 8115,
      "Ġcovers": 8116,
      "ropy": 8117,
      "Ġ###": 8118,
      "hedule": 8119,
      "aria": 8120,
      "Ġvideos": 8121,
      "Ġupdated": 8122,
      "Ġclassic": 8123,
      "return": 8124,
      "ĠIII": 8125,
      "}-": 8126,
      "Ġsessions": 8127,
      "ĠFederal": 8128,
      "Ġ1999": 8129,
      "asters": 8130,
      "sem": 8131,
      "Ġmedication": 8132,
      "VID": 8133,
      "Ġcarrying": 8134,
      "Question": 8135,
      "Ġru": 8136,
      "Ġphenomena": 8137,
      "Ġphotograph": 8138,
      "Ġforgot": 8139,
      "ket": 8140,
      "2014": 8141,
      "Dr": 8142,
      "Ġlie": 8143,
      "illa": 8144,
      "ĠCreate": 8145,
      "aming": 8146,
      "Ġintent": 8147,
      "Ġevolved": 8148,
      "kins": 8149,
      "Ġkne": 8150,
      "Ġmemories": 8151,
      "Ġvote": 8152,
      "ĠLevel": 8153,
      "Ġmicrosc": 8154,
      "Ġmutual": 8155,
      "Ġgiant": 8156,
      "Ġunw": 8157,
      "Ġimaging": 8158,
      "ĠIll": 8159,
      "ĠCarol": 8160,
      "ĠNetwork": 8161,
      "Ġrefuge": 8162,
      "ĠSuper": 8163,
      "Ġovercome": 8164,
      "Ġcake": 8165,
      "ulin": 8166,
      "compass": 8167,
      "CL": 8168,
      "ĠCr": 8169,
      "Ġpurchase": 8170,
      "gers": 8171,
      "ployment": 8172,
      "ĠDynam": 8173,
      ")|": 8174,
      "cule": 8175,
      "MA": 8176,
      "omach": 8177,
      "ĠKen": 8178,
      "Ġblank": 8179,
      "Ġchoosing": 8180,
      "\\,": 8181,
      "ĠLiter": 8182,
      "Ġeffectiveness": 8183,
      "Ġuniversity": 8184,
      "Ġnob": 8185,
      "Ġadds": 8186,
      "ĠEarly": 8187,
      "Ġinfluenced": 8188,
      "zil": 8189,
      "Ġtrials": 8190,
      "Ġtack": 8191,
      "rypt": 8192,
      "Ġacids": 8193,
      "ĠBack": 8194,
      "------------": 8195,
      "Ġmic": 8196,
      "ĠCat": 8197,
      "Ġturb": 8198,
      "Ġidentities": 8199,
      "Ġobjectives": 8200,
      "Ġrice": 8201,
      "Ġauthorities": 8202,
      "Ġwidespread": 8203,
      "Ġbin": 8204,
      "Ġmusical": 8205,
      "Ġtranslation": 8206,
      "ĠOnline": 8207,
      "Ġchildhood": 8208,
      "Ġstrengthen": 8209,
      "ocolate": 8210,
      "Ġadequate": 8211,
      "lishing": 8212,
      "Ġhousing": 8213,
      "%.": 8214,
      "Ġinspiration": 8215,
      "ĠHistorical": 8216,
      "ĠNext": 8217,
      "Ġtag": 8218,
      "stone": 8219,
      "âĢĻ,": 8220,
      "erals": 8221,
      "ĠDad": 8222,
      "Ġsched": 8223,
      "Ġwindows": 8224,
      "ĠAND": 8225,
      "Ġclients": 8226,
      "Ġparad": 8227,
      "Ġposts": 8228,
      "Over": 8229,
      "Ġproviders": 8230,
      "Ġintersection": 8231,
      "lights": 8232,
      "Ġspecialized": 8233,
      "Ġvibrant": 8234,
      "Ġbranches": 8235,
      "Ġracial": 8236,
      "ĠAT": 8237,
      "Ġtempor": 8238,
      "Ġclock": 8239,
      "onymous": 8240,
      "Ġretain": 8241,
      "Ġlists": 8242,
      "Ġtick": 8243,
      "Ġmm": 8244,
      "aud": 8245,
      "Ġhonest": 8246,
      "Ġinfluences": 8247,
      "]]": 8248,
      "Ġdirections": 8249,
      "di": 8250,
      "Despite": 8251,
      "Ġtheme": 8252,
      "ĠNever": 8253,
      "Ġprincipal": 8254,
      "Ġdetermination": 8255,
      "Ġholes": 8256,
      "ĠInit": 8257,
      "Ġbreathing": 8258,
      "Ġsho": 8259,
      "Ġintense": 8260,
      "everal": 8261,
      "Ġsession": 8262,
      "ĠUnfortunately": 8263,
      "Ġminute": 8264,
      "Ġbreaking": 8265,
      "olly": 8266,
      "Ġeducators": 8267,
      "Ġmechanics": 8268,
      "eties": 8269,
      "Ġlifestyle": 8270,
      "Ġtension": 8271,
      "ondition": 8272,
      "Ġclub": 8273,
      "Ġpartner": 8274,
      "Ġemployment": 8275,
      "Part": 8276,
      "Ġseemingly": 8277,
      "Ġlaboratory": 8278,
      "Ġswit": 8279,
      "ĠReport": 8280,
      "ĠTry": 8281,
      "Ġcomprom": 8282,
      "ĠEveryone": 8283,
      "Ùİ": 8284,
      "Ġinspire": 8285,
      "ĠDesc": 8286,
      "theless": 8287,
      "Ġeditor": 8288,
      "Ġclothing": 8289,
      "Ġquantities": 8290,
      "%)": 8291,
      "Ġpron": 8292,
      "Ġfinds": 8293,
      "Ġintake": 8294,
      "ĠJohns": 8295,
      "Ġorg": 8296,
      "åı": 8297,
      "âĢ¦âĢ¦": 8298,
      "%%": 8299,
      "Ġgradually": 8300,
      "ribution": 8301,
      "Ġexpertise": 8302,
      "lock": 8303,
      "ĠLouis": 8304,
      "Ġmur": 8305,
      "Ġescape": 8306,
      "Ġcalling": 8307,
      "ett": 8308,
      "2020": 8309,
      "Ġdiscrete": 8310,
      "Ġinterventions": 8311,
      "Ġlaser": 8312,
      "Ġsomewhat": 8313,
      "Ġshot": 8314,
      "fish": 8315,
      "Ġunable": 8316,
      "Ġranging": 8317,
      "Ġinflammation": 8318,
      "Â¶": 8319,
      "Ġintu": 8320,
      "Ġexhibit": 8321,
      "Ġinhib": 8322,
      "Ġcolleagues": 8323,
      "RA": 8324,
      "ĠMach": 8325,
      "Ġtired": 8326,
      "Ġdebt": 8327,
      "Ġfalls": 8328,
      "ĠBig": 8329,
      "Ġstrategic": 8330,
      "ĠEmpire": 8331,
      "Ret": 8332,
      "Ġpix": 8333,
      "friend": 8334,
      "Ġbits": 8335,
      "Ġ1980": 8336,
      "ĠStrateg": 8337,
      "Ġshaped": 8338,
      "ĠQuestions": 8339,
      "ulas": 8340,
      "Ġuncertainty": 8341,
      "ĠWord": 8342,
      "Ġmeters": 8343,
      "lessly": 8344,
      "Ġcombine": 8345,
      "Ġinfected": 8346,
      "ĠProfessor": 8347,
      "Ġprominent": 8348,
      "isters": 8349,
      "Ġamidst": 8350,
      "Ġcalcium": 8351,
      "Ġmarks": 8352,
      "ĠNum": 8353,
      "ora": 8354,
      "Ġdisrupt": 8355,
      "ĠVict": 8356,
      "ĠWrite": 8357,
      "Ġdispl": 8358,
      "Ġcolorful": 8359,
      "Ġbrand": 8360,
      "Î±": 8361,
      "ĠIns": 8362,
      "Ġdefinitions": 8363,
      "Ġcustomer": 8364,
      "ools": 8365,
      "Ġimprovements": 8366,
      "Ġended": 8367,
      "lines": 8368,
      "aked": 8369,
      "ameters": 8370,
      "Ġscores": 8371,
      "Ġversus": 8372,
      "Ġdeaths": 8373,
      "Ġfertil": 8374,
      "Ġ(\\": 8375,
      "ĠOcean": 8376,
      "Ġdirector": 8377,
      "ĠSpecial": 8378,
      "MC": 8379,
      "Ġwheel": 8380,
      "Ġ1998": 8381,
      "ĠImport": 8382,
      "Ġcompens": 8383,
      "Ġteen": 8384,
      "ouds": 8385,
      "Ġconfident": 8386,
      "iatric": 8387,
      "etics": 8388,
      "Ġoverwhel": 8389,
      "step": 8390,
      "Ġbeam": 8391,
      "ĠItaly": 8392,
      "Ġaccurately": 8393,
      "Ġattempts": 8394,
      "Ġ1000": 8395,
      "Ġprivacy": 8396,
      "Ġpregnancy": 8397,
      "Ġcontrovers": 8398,
      "Ġpractition": 8399,
      "Ġrom": 8400,
      "Ġpreventing": 8401,
      "Reg": 8402,
      "ocket": 8403,
      "Ġdistributions": 8404,
      "Ġagent": 8405,
      "ĠRevolution": 8406,
      "abulary": 8407,
      "Ġcodes": 8408,
      "Ġencouraging": 8409,
      "Ġchemistry": 8410,
      "Ġreaching": 8411,
      "Ġprofile": 8412,
      "Ġcrime": 8413,
      "ĠSoviet": 8414,
      "Pe": 8415,
      "ĠâĨĴ": 8416,
      "Ġdioxide": 8417,
      "Ġbeach": 8418,
      "Ġhierarch": 8419,
      "Ġassumption": 8420,
      "ĠMars": 8421,
      "Ġindicated": 8422,
      "Hz": 8423,
      "ĠAge": 8424,
      "Ġ37": 8425,
      "ĠStandard": 8426,
      "ette": 8427,
      "Ġcontribution": 8428,
      "velength": 8429,
      "Ġhardware": 8430,
      "Ġunity": 8431,
      "Ġnewsp": 8432,
      "Ġcentre": 8433,
      "Ġroof": 8434,
      "Ġboys": 8435,
      "ĠAustralian": 8436,
      "Co": 8437,
      "ĠTheorem": 8438,
      "ĠParis": 8439,
      "Get": 8440,
      "Ġcontributed": 8441,
      "91": 8442,
      "mann": 8443,
      "Ġouter": 8444,
      "Ġconversion": 8445,
      "you": 8446,
      "Ġaccommod": 8447,
      "esian": 8448,
      "neys": 8449,
      "Ġoptical": 8450,
      "ĠOffice": 8451,
      "Ġadvancements": 8452,
      "Ġcomplement": 8453,
      "Ġacknowled": 8454,
      "Ġgro": 8455,
      "Ġstores": 8456,
      "ĠRome": 8457,
      "Ġmild": 8458,
      "Ġdriven": 8459,
      "Ġweights": 8460,
      "Ġcalculator": 8461,
      "Ġbalanced": 8462,
      "Ġencompass": 8463,
      "Ġdesigning": 8464,
      "2009": 8465,
      "ĠBur": 8466,
      "Ġresulted": 8467,
      "ĠCommit": 8468,
      "fol": 8469,
      "quare": 8470,
      "Ġdil": 8471,
      "Ġâī": 8472,
      "Ġtur": 8473,
      "Ġpra": 8474,
      "acent": 8475,
      "Ġdifficulties": 8476,
      "sl": 8477,
      "alog": 8478,
      "Ġgradient": 8479,
      "ĠConstitution": 8480,
      "Ġroute": 8481,
      "Ġlikelihood": 8482,
      "ounce": 8483,
      "ĠYear": 8484,
      "Ġsurprising": 8485,
      "Ġpassage": 8486,
      "Ġcombining": 8487,
      "Ġshut": 8488,
      "ĠFunction": 8489,
      "BS": 8490,
      "Every": 8491,
      "Ġlights": 8492,
      "Med": 8493,
      "draw": 8494,
      "ĠLearn": 8495,
      "irical": 8496,
      "elesc": 8497,
      "iability": 8498,
      "Using": 8499,
      "Ġextraordinary": 8500,
      "seud": 8501,
      "??": 8502,
      "Ġdental": 8503,
      "$(": 8504,
      "Ġidentical": 8505,
      "points": 8506,
      "}^{\\": 8507,
      "embered": 8508,
      "Ġdisput": 8509,
      "umn": 8510,
      "mediate": 8511,
      "Ġqualities": 8512,
      "ecess": 8513,
      "Ġdispar": 8514,
      "2019": 8515,
      "ĠSat": 8516,
      "ĠBuilding": 8517,
      "Ġexperiencing": 8518,
      "Ps": 8519,
      "Ġmorph": 8520,
      "Ġlabels": 8521,
      "ĠISBN": 8522,
      "ouble": 8523,
      "ĠPot": 8524,
      "dt": 8525,
      "neg": 8526,
      "Ġacting": 8527,
      "2008": 8528,
      "levision": 8529,
      "apse": 8530,
      "Ġtube": 8531,
      "Ġexcessive": 8532,
      "utch": 8533,
      "ĠEss": 8534,
      "Ġforever": 8535,
      "Ġperfectly": 8536,
      "Ġdistances": 8537,
      "Ġinsects": 8538,
      "Ġnotation": 8539,
      "ishment": 8540,
      "Ġconstantly": 8541,
      "Ġneutral": 8542,
      "Ġrepair": 8543,
      "Ġborder": 8544,
      "ĠNations": 8545,
      "Ġdishes": 8546,
      "Ġrepresentations": 8547,
      "Ġreasonable": 8548,
      "ĠHaw": 8549,
      "Ġpredicted": 8550,
      "Ġillustrate": 8551,
      "imer": 8552,
      "Ġbringing": 8553,
      "Ġdisag": 8554,
      "orses": 8555,
      "ao": 8556,
      "2018": 8557,
      "Ġapproximation": 8558,
      "Ġradical": 8559,
      "Ġdinner": 8560,
      "Ġ34": 8561,
      "Ġcoc": 8562,
      "esis": 8563,
      "ĠIss": 8564,
      "ĠColor": 8565,
      "ĠDev": 8566,
      "Ġphoto": 8567,
      "Ġinteractive": 8568,
      "Ġnose": 8569,
      "Ġregulation": 8570,
      "eting": 8571,
      "Ġplenty": 8572,
      "otypes": 8573,
      "ĠHT": 8574,
      "Ġsampling": 8575,
      "Ġpermanent": 8576,
      "Ġreceiving": 8577,
      "mid": 8578,
      "omer": 8579,
      "âĶ": 8580,
      "onents": 8581,
      "Ġ1970": 8582,
      "angers": 8583,
      "cycl": 8584,
      "Ġidentification": 8585,
      "osion": 8586,
      "Ġsyndrome": 8587,
      "Ġheating": 8588,
      "Ġwriter": 8589,
      "Today": 8590,
      "ĠAsian": 8591,
      "ĠScott": 8592,
      "Ġmine": 8593,
      "Ġtargets": 8594,
      "Ġflexible": 8595,
      "Ġnur": 8596,
      "bye": 8597,
      "Ġwebsites": 8598,
      "Ġtreating": 8599,
      "aired": 8600,
      "Ġbiology": 8601,
      "Ġprecisely": 8602,
      "Ġkeeps": 8603,
      "ĠCross": 8604,
      "Thanks": 8605,
      "Eng": 8606,
      "Ġdetermining": 8607,
      "Ġkin": 8608,
      "Ġcompetitive": 8609,
      "itory": 8610,
      "orted": 8611,
      "rated": 8612,
      "Ġattach": 8613,
      "hma": 8614,
      "ĠPan": 8615,
      "ppy": 8616,
      "ĠColumb": 8617,
      "nab": 8618,
      "Ġcelebrate": 8619,
      "Ġtransc": 8620,
      "Ġsongs": 8621,
      "Ġmand": 8622,
      "Ġmapping": 8623,
      "Ġbiggest": 8624,
      "Ġpanel": 8625,
      "label": 8626,
      "Ġcontexts": 8627,
      "ĠLittle": 8628,
      "Ġrows": 8629,
      "Ġunders": 8630,
      "Ġglad": 8631,
      "Ġdish": 8632,
      "Ġ!": 8633,
      "Ġfinger": 8634,
      "ograp": 8635,
      "Ġcharged": 8636,
      "Ġfossil": 8637,
      "âĢĺ": 8638,
      "Ġarr": 8639,
      "uits": 8640,
      "ĠCamp": 8641,
      "Supp": 8642,
      "Ġbiod": 8643,
      "ĠCode": 8644,
      "Ġsafely": 8645,
      "pass": 8646,
      "iral": 8647,
      "Ġnervous": 8648,
      "Ġcomposed": 8649,
      "ĠItalian": 8650,
      "Ġpand": 8651,
      "Ġexcite": 8652,
      "Ġoscill": 8653,
      "ĠQuant": 8654,
      "esity": 8655,
      "ĠRichard": 8656,
      "Ġhung": 8657,
      "redict": 8658,
      ",'": 8659,
      "Ġbanks": 8660,
      "venile": 8661,
      "Ġlandscapes": 8662,
      "idential": 8663,
      "Ġfeat": 8664,
      "Ġlingu": 8665,
      "Ġcontainer": 8666,
      "otion": 8667,
      "Ġtact": 8668,
      "cribed": 8669,
      "Ġtric": 8670,
      "Ġroughly": 8671,
      "Ġcombat": 8672,
      "Ġveter": 8673,
      "Ġenhanced": 8674,
      "ĠGuide": 8675,
      "Ġsoph": 8676,
      "Ġhus": 8677,
      "ysical": 8678,
      "Ġrising": 8679,
      "Ġassociation": 8680,
      "Ġremembered": 8681,
      "Ġlogical": 8682,
      "Ġride": 8683,
      "ĠSpain": 8684,
      "ĠMathematical": 8685,
      "iler": 8686,
      "Ġnewly": 8687,
      "born": 8688,
      "earing": 8689,
      "Ġsmoke": 8690,
      "ĠBoard": 8691,
      "Comm": 8692,
      "Ġsacr": 8693,
      "ĠThank": 8694,
      "Ġharder": 8695,
      "Ġfinish": 8696,
      "car": 8697,
      "Ġrhyth": 8698,
      "zer": 8699,
      "ĠObs": 8700,
      "Ġstomach": 8701,
      "ĠPop": 8702,
      "Ġanywhere": 8703,
      "ĠPage": 8704,
      "Ġactively": 8705,
      "ĠJoseph": 8706,
      "ĠFund": 8707,
      "Ġadvert": 8708,
      "Ġconstitution": 8709,
      "PT": 8710,
      "ucl": 8711,
      "Ġcats": 8712,
      "non": 8713,
      "Ġdiffer": 8714,
      "ani": 8715,
      "Ġcolonial": 8716,
      "ala": 8717,
      "Ø§": 8718,
      "Ġstre": 8719,
      "ostic": 8720,
      "ĠIndust": 8721,
      "Ġavailability": 8722,
      "Ġfurn": 8723,
      "Ġimmigr": 8724,
      "xy": 8725,
      "Mat": 8726,
      "Ġ(\"": 8727,
      "ĠAlgebra": 8728,
      "Ġvessels": 8729,
      "Ġarbitrary": 8730,
      "Ġinn": 8731,
      "ĠWhether": 8732,
      "Ġhoney": 8733,
      "Ġships": 8734,
      "CS": 8735,
      "IF": 8736,
      "ĠIre": 8737,
      "ĠThree": 8738,
      "icity": 8739,
      "icago": 8740,
      "anta": 8741,
      "Ġvertices": 8742,
      "ĠSouthern": 8743,
      "rine": 8744,
      "Ġvariance": 8745,
      "Ġentered": 8746,
      "Ġwelcome": 8747,
      "Ġcoastal": 8748,
      "Ġconfused": 8749,
      "ĠVirginia": 8750,
      "iture": 8751,
      "gment": 8752,
      "eenth": 8753,
      "gener": 8754,
      "ĠĠĠĠĠĠ": 8755,
      "ĠID": 8756,
      "Art": 8757,
      "Ġcovering": 8758,
      "edu": 8759,
      "aste": 8760,
      "stant": 8761,
      "itational": 8762,
      "Ġnonlinear": 8763,
      "Ġdocumentation": 8764,
      "ĠMu": 8765,
      "Ġdecade": 8766,
      "connected": 8767,
      "mers": 8768,
      "olester": 8769,
      "Ġcleaning": 8770,
      "Ġcookies": 8771,
      "Pre": 8772,
      "Ġdominant": 8773,
      "prene": 8774,
      "Ġatomic": 8775,
      "ateral": 8776,
      "Ġfrequent": 8777,
      "Ġmoisture": 8778,
      "Ġdecom": 8779,
      "sey": 8780,
      "fast": 8781,
      "Ġrelat": 8782,
      "Ġseparated": 8783,
      "Ġate": 8784,
      "ocy": 8785,
      "outs": 8786,
      "ĠResp": 8787,
      "ĠSym": 8788,
      "ĠChristianity": 8789,
      "Ġcluster": 8790,
      "Lesson": 8791,
      "ĠProblem": 8792,
      "Ġvertex": 8793,
      "Ġrecommendations": 8794,
      "Ġsport": 8795,
      "liam": 8796,
      "ading": 8797,
      "oons": 8798,
      "ĠBank": 8799,
      "reprene": 8800,
      "Ġinher": 8801,
      "Ġrestric": 8802,
      "Ġshop": 8803,
      "Ġbreaks": 8804,
      "burg": 8805,
      "Ġcrack": 8806,
      "Ġcurves": 8807,
      "Ġfunny": 8808,
      "lar": 8809,
      "Ġalgebraic": 8810,
      "ĠComputer": 8811,
      "Ġfer": 8812,
      "Ġrecall": 8813,
      "tery": 8814,
      "ldots": 8815,
      "Ġpublication": 8816,
      "Ġ48": 8817,
      "Ġadvances": 8818,
      "Ġsunlight": 8819,
      "Ġmarried": 8820,
      "Ġgenerating": 8821,
      "icide": 8822,
      "ĠSil": 8823,
      "okes": 8824,
      "Ġecosystems": 8825,
      "ba": 8826,
      "Ġaudio": 8827,
      "plicit": 8828,
      "ĠEmb": 8829,
      "ĠSpot": 8830,
      "American": 8831,
      "Ġnine": 8832,
      "ston": 8833,
      "Ġdeviation": 8834,
      "Ġstere": 8835,
      "Ġdense": 8836,
      "Ġcontributes": 8837,
      "ĠCH": 8838,
      "='": 8839,
      "Ġepid": 8840,
      "ĠGraph": 8841,
      "Ġtargeted": 8842,
      "ĠThough": 8843,
      "ĠWood": 8844,
      "acts": 8845,
      "Ġbuck": 8846,
      "ĠFace": 8847,
      "Ġreasoning": 8848,
      "Ġlosses": 8849,
      "ih": 8850,
      "Ġterritory": 8851,
      "Ġtub": 8852,
      "Ġutility": 8853,
      "ĠYoung": 8854,
      "ĠFlorida": 8855,
      "Ġtip": 8856,
      "Ġchlor": 8857,
      "Ġsubset": 8858,
      "Ġcountless": 8859,
      "ĠEastern": 8860,
      "Ġfeeding": 8861,
      "jective": 8862,
      "Ġhappiness": 8863,
      "ĠCase": 8864,
      "Ġedited": 8865,
      "inking": 8866,
      "ĠCirc": 8867,
      "Ġgathered": 8868,
      "Ġadventures": 8869,
      "Ġpup": 8870,
      "Ġchose": 8871,
      "Ġtraits": 8872,
      "Ġproven": 8873,
      "night": 8874,
      "Ġflavor": 8875,
      "Ġinputs": 8876,
      "Ġthousand": 8877,
      "Ġsimulations": 8878,
      "Ġmeth": 8879,
      "Ġtissues": 8880,
      "Ġmagnet": 8881,
      "Ġtales": 8882,
      "Ġwww": 8883,
      "Are": 8884,
      "Ġcalm": 8885,
      "symbol": 8886,
      "rooms": 8887,
      "Ġsaved": 8888,
      "Ġdollars": 8889,
      "pg": 8890,
      "Ġfault": 8891,
      "Ġtwenty": 8892,
      "Ġencouraged": 8893,
      "Ġpredictions": 8894,
      "ĠConnect": 8895,
      "Ġreprodu": 8896,
      "Ġflexibility": 8897,
      "ĠIndeed": 8898,
      "Ġtrauma": 8899,
      "https": 8900,
      "ĠBrazil": 8901,
      "Ġcomputational": 8902,
      "ĠLaTeX": 8903,
      "Ġcomputation": 8904,
      "Ġapplies": 8905,
      "Ġmultiplication": 8906,
      "Ġproductivity": 8907,
      "olesterol": 8908,
      "Ġcong": 8909,
      "Ġ120": 8910,
      "angles": 8911,
      "Ġdisplayed": 8912,
      "ĠClimate": 8913,
      "Ã¤": 8914,
      "Ġstuck": 8915,
      "Ġgrant": 8916,
      "Ġabsorb": 8917,
      "rey": 8918,
      "Ġrit": 8919,
      "Ġcyl": 8920,
      "Ġpy": 8921,
      "ĠMartin": 8922,
      "Ġsolved": 8923,
      "Ġpoetry": 8924,
      "ĠSecurity": 8925,
      "esides": 8926,
      "uine": 8927,
      "ĠRom": 8928,
      "Throughout": 8929,
      "Ġ1997": 8930,
      "Ġborrow": 8931,
      "Where": 8932,
      "Ġemphasis": 8933,
      "pes": 8934,
      "ruption": 8935,
      "Ġfest": 8936,
      "Ġalternatives": 8937,
      "bold": 8938,
      "ariant": 8939,
      "Ġpeoples": 8940,
      "bur": 8941,
      "Ġpharm": 8942,
      "Ġsensors": 8943,
      "Ġrecognizing": 8944,
      "Ġvisitors": 8945,
      "Ġaest": 8946,
      "ĠMaterial": 8947,
      "Ġpreced": 8948,
      "ĠAcademy": 8949,
      "Ġ_{": 8950,
      "ĠSelect": 8951,
      "->": 8952,
      "Ġcycles": 8953,
      "UTC": 8954,
      "Ġoblig": 8955,
      "Ġfont": 8956,
      "Ġstrain": 8957,
      "ĠBul": 8958,
      "Ġmarketing": 8959,
      "ĠDC": 8960,
      "ithmetic": 8961,
      "ugg": 8962,
      "psi": 8963,
      "mented": 8964,
      "Ġcoverage": 8965,
      "rand": 8966,
      "Ġfourth": 8967,
      "Ġexplicitly": 8968,
      "Suddenly": 8969,
      "ĠJava": 8970,
      "Ġmemor": 8971,
      "iary": 8972,
      "Ġhide": 8973,
      "Ġrecept": 8974,
      "ustain": 8975,
      "Ġdetected": 8976,
      "ĠHand": 8977,
      "ĠDO": 8978,
      "ĠClin": 8979,
      "EG": 8980,
      "Ġdropped": 8981,
      "Ġgluc": 8982,
      "ieval": 8983,
      "Ġguard": 8984,
      "Ġalive": 8985,
      "([": 8986,
      "ĠZh": 8987,
      "Ġinclusive": 8988,
      "Hello": 8989,
      "ĠWikipedia": 8990,
      "Ġrid": 8991,
      "eutic": 8992,
      "IA": 8993,
      "source": 8994,
      "last": 8995,
      "quality": 8996,
      "Ġasks": 8997,
      "Ġtroops": 8998,
      "ĠConference": 8999,
      "ĠDen": 9000,
      "Ġrivers": 9001,
      "ĠDu": 9002,
      "ĠLow": 9003,
      "Ġcriminal": 9004,
      "eat": 9005,
      "host": 9006,
      "Ġaudiences": 9007,
      "Ġanalyses": 9008,
      "liament": 9009,
      "hyd": 9010,
      "Type": 9011,
      "Ġtom": 9012,
      "tan": 9013,
      "Ġchief": 9014,
      "sen": 9015,
      "Ġsatellite": 9016,
      "cies": 9017,
      "Ġ400": 9018,
      "init": 9019,
      "ĠIreland": 9020,
      "Ġplain": 9021,
      "Ġbuff": 9022,
      "Ġorigins": 9023,
      "Ġspecify": 9024,
      "LS": 9025,
      "ÂŃ": 9026,
      "Ġ150": 9027,
      "Ġfing": 9028,
      "rency": 9029,
      "Ġgeometric": 9030,
      "Ġdestroyed": 9031,
      "Ġscales": 9032,
      "Ġconfirm": 9033,
      "Ġunion": 9034,
      "ulus": 9035,
      "),(": 9036,
      "otype": 9037,
      "Ġchocolate": 9038,
      "Ġchest": 9039,
      "Ġsophistic": 9040,
      "Ġchair": 9041,
      "ĠMer": 9042,
      "Ġworkshe": 9043,
      "ĠPoly": 9044,
      "ĠOl": 9045,
      "ĠInvest": 9046,
      "Ġpatience": 9047,
      "ĠIde": 9048,
      "iche": 9049,
      "PR": 9050,
      "Ġorange": 9051,
      "Ġorders": 9052,
      "wing": 9053,
      "Ġ42": 9054,
      "Ġopinions": 9055,
      "Ġgrasp": 9056,
      "Ġsister": 9057,
      "Ġtrace": 9058,
      "Ġdepart": 9059,
      "Ġisolated": 9060,
      "bbed": 9061,
      "Ġscr": 9062,
      "ĠView": 9063,
      ")]": 9064,
      "Ġpreparing": 9065,
      "vance": 9066,
      "Ġforecast": 9067,
      "etary": 9068,
      ")$,": 9069,
      "Ġdiver": 9070,
      "Ġgreenhouse": 9071,
      "ĠStreet": 9072,
      "Ġmolecule": 9073,
      "Ġdefect": 9074,
      "Ġreverse": 9075,
      "dots": 9076,
      "Ġcav": 9077,
      "Ġbun": 9078,
      "Find": 9079,
      "Ġhonor": 9080,
      "Ġdigit": 9081,
      "imp": 9082,
      "ĠMel": 9083,
      "Ġvolcan": 9084,
      "Ġvoices": 9085,
      "Ġintr": 9086,
      "ĠCommunity": 9087,
      "ĠAdminist": 9088,
      "Ġinspect": 9089,
      "Ġnitrogen": 9090,
      "Ġcompos": 9091,
      "dri": 9092,
      "Ġcircles": 9093,
      "Ġsmoking": 9094,
      "Ġtough": 9095,
      "ĠLab": 9096,
      "ĠServices": 9097,
      "dep": 9098,
      "ressing": 9099,
      "Ġillum": 9100,
      "inuous": 9101,
      "Ġenemy": 9102,
      "Ġcrypt": 9103,
      "ĠCrit": 9104,
      "including": 9105,
      "Ġwarning": 9106,
      "Ġtwist": 9107,
      "Ġbroke": 9108,
      "Ġdecreased": 9109,
      "Ġweakness": 9110,
      "heast": 9111,
      "Ġrecover": 9112,
      "ðŁ": 9113,
      "Ġmigration": 9114,
      "ĠBab": 9115,
      "ĠDown": 9116,
      "Ġprinting": 9117,
      "Ġauton": 9118,
      "Ġecological": 9119,
      "Ġrelief": 9120,
      "ĠDisease": 9121,
      "Ġcaptivating": 9122,
      "cher": 9123,
      "Ġwearing": 9124,
      "Time": 9125,
      "ells": 9126,
      "Ġeager": 9127,
      "effect": 9128,
      "Ġhybrid": 9129,
      "roups": 9130,
      "andon": 9131,
      "Ġparagraph": 9132,
      "Ġexcitement": 9133,
      "~~": 9134,
      "Ġmail": 9135,
      "Ġcaptured": 9136,
      "ailable": 9137,
      "eath": 9138,
      "Ġmetals": 9139,
      "Ġbrush": 9140,
      "ĠLight": 9141,
      "Ġphosph": 9142,
      "ĠNorthern": 9143,
      "Because": 9144,
      "Ge": 9145,
      "Ġdisk": 9146,
      "Ġneutr": 9147,
      "Ġinterior": 9148,
      "2006": 9149,
      "2007": 9150,
      "ĠAR": 9151,
      "acher": 9152,
      "Ġ1960": 9153,
      "Ġconcentrations": 9154,
      "Ġminerals": 9155,
      "Ġpsychology": 9156,
      "teen": 9157,
      "Ġ55": 9158,
      "Ġmining": 9159,
      "Ġirre": 9160,
      "ĠPolit": 9161,
      "CE": 9162,
      "page": 9163,
      "Ġcarb": 9164,
      "ĠHam": 9165,
      "Ġlady": 9166,
      "ĠIV": 9167,
      "Ġprinted": 9168,
      "ĠBusiness": 9169,
      "cient": 9170,
      "ceptions": 9171,
      "sk": 9172,
      "Ġcra": 9173,
      "Ġstorytelling": 9174,
      "Ġstatic": 9175,
      "Ġphysically": 9176,
      "}}{\\": 9177,
      "open": 9178,
      "Ġplanets": 9179,
      "Ġbibl": 9180,
      "ctu": 9181,
      "ĠDigital": 9182,
      "ĠBased": 9183,
      "Ġdirected": 9184,
      "DS": 9185,
      "Abstract": 9186,
      "Ġconsiderable": 9187,
      "Ġsentences": 9188,
      "Ġsolely": 9189,
      "Trans": 9190,
      "ĠHu": 9191,
      "ĠFlu": 9192,
[...]
